2B07
ACAE
10BA
34C6
3058
3084
2554
ABC0
AAC3
2E78
3496
311B
B064
A108
2F51
290C
3448
2A8F
A7D5
30D3
2EFD
AC6B
335B
2CCB
2CEF
2868
311F
A32F
2CF5
2A60
2E13
2910
1CC5
1CDF
3126
3118
B258
A9F1
A749
276A
363F
3024
B426
2E21
2BA9
AD17
33FD
31BE
20A5
AE21
2ED1
AF23
3196
31F0
2E4E
ACCB
2CDE
1C0C
2DF3
30BC
1E38
2C9C
ABDF
B317
2BBA
2EAD
B021
A029
1DEC
B32C
2D98
2EDD
A8B2
1F0E
3046
B201
A9A6
300C
30C0
ACE8
3053
AF56
B08C
31B8
334E
A62F
2DA7
3132
A7AD
31DB
34F4
311D
0DA3
B47A
B142
32AC
2B5B
26BC
2889
B541
B213
2BB7
2C45
2A4D
AE56
B383
B1E0
2CCB
3414
A902
A9FD
B4DC
B420
1D2A
3366
A535
297D
288F
AC37
2AD8
3037
29B9
AED2
B322
B3F6
2B7D
2980
25B3
B01E
B14E
B43E
A07A
2BD5
A496
B007
A9AF
B262
264A
2DE8
A62E
AD95
B115
AD78
ADB6
297A
ACE0
2CC8
3079
B03F
9BC4
AE4C
A2A5
A8E2
AA5B
1F84
286B
B1F3
267F
ACFB
2D1B
AE7E
A56C
2B30
9FDF
91DE
A4C4
2813
ABF9
A9F5
28DB
2832
B0B6
2B6E
A5D3
9ED8
1715
A611
AEB1
AD81
289D
A75C
AD14
2CCC
2868
AEF7
AD65
9D7E
2725
AC75
2C92
A83C
28AC
2C71
2D13
AC05
2D02
AB9F
ABE7
AD1A
A97E
A5E7
2CE5
A0C8
9B45
AE12
AAAB
AF59
29B0
235B
ACC1
ADE5
ADD1
AC32
2C4A
2BFB
A758
B307
29E9
AA38
A4A5
ACF2
AD60
30D0
3089
A926
A8D9
ACB9
AF08
A584
28B3
A59F
2AEA
B154
AD3C
B1C4
238C
AD34
AAC4
B07F
AB42
B46E
9F9E
28AE
25A4
AE7E
A8D0
B215
AD0A
2F6A
28F3
A534
2CFC
29D6
2C5A
2CC0
2FAC
2D26
2C87
A55B
2CDE
2B53
309A
9E2A
2A97
AFF5
25B2
AABF
30B3
AF1E
AD9A
AF72
27A0
AC9D
2C10
B210
AC10
A487
A466
2F55
ACF6
310C
2605
2BF3
AB91
31F4
AE18
3256
2D2D
2DF3
A41D
2D34
B022
29DE
2864
2757
A162
2C9C
29B5
A139
A255
2035
2C42
28E7
2125
AC5A
2CB6
A563
A998
2553
A616
2290
9CF3
B1AD
286C
AEE7
2C46
B146
2FB5
321D
29CF
B1D5
2D68
B0C3
2AFD
3538
2497
B0E2
AA5F
AB06
AB32
2D7F
2C91
2270
AC3F
A44E
B160
30C5
2646
277A
A917
24FA
AEE1
2970
AB1F
B002
25D5
AC11
2514
2362
2B2C
B0F5
302D
ACCF
1A83
3255
2C36
B07A
2C8E
2B0A
AE5B
A690
2DC2
2108
A4C3
A803
B47E
AE18
A4C2
A67E
2D67
3074
B290
AE6D
299A
A718
24CC
283D
AB47
9FEB
2883
14F4
258A
9629
B1BA
B1E0
AB17
9877
26D1
B1E1
AD23
B561
A6C7
9E3A
ABA4
B1F8
ADD7
B546
AC42
26FE
2779
AD37
B117
B026
2664
28AE
A9D4
311E
21B5
A900
3138
2395
32C0
3400
B1F6
B165
2DEB
2E53
24F8
AB27
AF17
B7C1
1EE9
2830
AF06
B438
2226
B61C
AE70
220E
AD18
B4BA
A65C
AC69
27E8
2DD5
31EE
310B
2CCA
AEAF
2FF5
3500
3573
2EA5
2D19
AC45
2CDE
2D0B
2E05
2D9B
29EF
B021
2925
2DB5
2B7A
A41C
A034
B1BD
A77A
AAA1
9F32
AB43
1C0E
1EE9
AA20
A89A
2A14
23D8
A4E7
C0F0
A6F9
21EE
304F
3887
2D36
B809
ACB6
2F4C
324E
357E
2D3E
B831
AC47
3385
3014
349D
A87D
B58B
ACF4
2C79
1C5A
31C4
AAEE
AA65
A815
29D4
B24E
2446
B093
2F85
AAD5
3413
B00D
30A6
31A6
B88D
2E1E
ACA5
B3A0
28BA
301B
B58E
2973
AE90
2795
3145
30E7
B28B
A189
AE6F
A26F
262E
2987
AFF0
AD31
3011
2B88
B350
B209
301D
AA8B
32C4
B9BB
B4A2
310E
AC2D
A9A4
2977
B54A
B334
34BC
AF89
B01A
AE7E
B4B5
AAFB
33E7
2C81
2ACA
B5A2
B3C8
A8D5
AB8C
35A4
30D2
1E5A
B330
2C17
B49C
37C0
3715
B5D7
B12E
B334
B201
370C
351B
B592
2EF6
2352
B239
2D71
35F5
B501
38BD
32C5
AE07
B5D4
31A1
B746
379A
375C
B472
AD66
3309
B9F8
AF32
3B1B
B267
3791
A4AB
3058
B14B
B8B7
3298
38A6
B50D
31C9
35FC
BA3E
345B
39A5
B2EE
2F05
39C9
B945
3743
3493
B5F5
396E
3A0E
B4AE
2FEB
2FF7
AD0B
3A01
3ADE
204A
B08C
35AA
27C9
9FAC
1EAC
18F7
2869
3D61
260C
B15F
2726
32B3
A501
2A0B
A877
31CF
B872
2FFD
B05B
B34C
B1C7
30C1
B4C6
32BA
B0DF
B7CA
9863
27AF
B5B5
320C
B142
B43A
A899
A5C2
B86F
344F
B07A
AC0A
2E40
B49C
369A
AF48
337A
3519
2182
33C1
B453
301E
AEAF
2FE2
AD49
366A
B655
2DEB
B171
B7E2
B3A1
3046
A89B
B045
AC77
B63A
AD22
B0CA
B19C
3197
B1B0
B11E
B08E
99BA
363B
B544
33D0
39D8
2B21
B521
ADC1
B68D
2B9C
36F4
320A
3242
B854
1F7F
AE21
ACA5
287F
A0BB
B50B
B409
AB93
B535
16B0
B211
B199
26B3
B0DA
B434
A481
3112
3981
B0E5
2D91
35B6
2EF9
274B
376F
ACC6
2C9E
35E2
30B7
313B
21CF
2881
3092
29D5
2BAC
1A49
2746
B02C
A365
AD47
2DE0
AC81
A636
2DBC
A43D
B19A
AF52
B23B
34CC
B143
2A5D
318E
2E43
303B
38F3
8F21
B396
362A
2EB6
A8F1
35C2
2863
AC3E
23ED
2DF8
22C8
36A4
285D
2A31
B161
2DC2
AEFC
31A8
3041
3164
B076
1BBF
19B9
20C5
24C9
287A
31A4
2D50
2D61
3065
306E
331B
2D30
270D
A6EF
A426
2FB7
308C
2386
2EAA
A767
28BD
2E6C
2559
A659
2C7B
A102
A975
30D6
AF5F
ADC7
AC60
2C61
2C79
2500
AFDD
B322
B08C
A7C8
348D
3343
3509
A818
A2D1
95E2
36C4
333C
3119
2CD3
298D
ABDF
35B4
2007
2E69
2E33
3294
AEBA
3464
2D3A
B1ED
2C2A
2082
2CB2
30FC
2AE4
AEA6
AF01
ADA7
182C
345E
347B
3489
B45C
A553
2C97
35C9
365B
32F8
2A5B
A8B8
A97F
3498
3037
2E49
3253
3160
ACA2
3192
34F5
B0FA
33C3
2D7C
2921
309F
3424
AECF
2D78
ACC5
A3BD
2D83
34FF
2FB5
B458
A6E4
A3CC
2B43
3416
2654
A6AF
97AC
9FB8
2C3D
3431
2FC6
2B52
2523
2E83
AE39
36E3
A603
3384
301F
ACB6
AC99
3526
ACA0
353A
2E9D
2855
B400
356C
267F
AC39
2D25
AC03
B4B1
350F
A852
11F0
2C3A
ADF4
B417
32D6
9A3F
2C7C
2C39
AAFD
B425
34CA
A9F4
3279
2F3A
AF1D
A669
2CEB
2E84
34CC
9E60
24DA
A81D
2696
A9CC
35F5
B285
A68B
24BF
B384
3315
AD80
ACA6
A4E7
A5FD
ACF4
3232
34BF
AB13
30A3
2C08
ABA7
2ED2
35D8
2797
3313
3692
B2A9
ABA1
331B
1F6D
34D7
35CC
B445
ADA9
2C76
A9C3
AB20
B0F2
B2D6
AFC3
ACC0
255F
A85C
2DC3
B204
B17B
B821
B1BE
AE98
354E
AFC7
B2BE
BAB8
B0C6
B0FA
34AA
B11D
B410
B8AB
AC85
28E9
35AF
B16C
B2B2
B111
A29A
182F
2F0D
35E8
AC3A
341E
2C42
B12A
3183
3642
2983
3132
3168
25F0
28B6
35D1
AB06
B1FF
30D1
3014
B080
3536
AC38
B17D
265D
2D7A
2E89
2FA2
A863
208C
B1B5
2E61
3465
2A6D
32E4
B3FF
B040
30FD
30BA
2CD2
3430
2CA3
AC92
34A5
344F
259F
28EB
2A27
AD9C
3052
32A9
AEA4
2B00
2E01
AC44
27DB
304F
AE29
2A78
AE15
2CC8
9FA9
AD2E
B13C
AFA8
A5A1
19BC
9466
AF1A
B7DC
AE24
2FFF
AF8E
9C50
AE4D
B656
AC4F
20FB
B27A
228B
ABEB
B2A1
26A4
A8E8
B23C
3186
2D58
AEF2
A2FD
AECE
2A1C
276D
A5A2
1E6C
A3D7
B19F
A442
A9A6
2E81
B1BB
B326
30F1
1B03
AEA8
2CA1
B2FA
B395
3168
1954
B0BA
215B
B0B9
B2AE
2867
288C
B0EE
ADDB
B01F
B4A7
3101
2F6A
AE26
AFA6
2880
B0E5
3286
ACE9
B2B7
31D6
2453
B2A7
2458
2856
B49E
3119
A555
B155
2E37
2E7F
B2E1
2FFF
2859
B27A
ACC7
30CF
B262
2EDC
2F4C
B4F9
A6BE
309D
B0A3
2904
2D9E
B233
2D9C
29C9
AA20
34D1
2ED2
B0A6
B23B
3139
1EF2
3479
2FEE
AD66
B563
2BF7
26E3
3412
2CCA
AEFF
B615
2DA4
25AD
31A1
9EC6
ACD2
B479
1383
12C2
292D
AD36
A4D6
AC3E
2CB7
26CB
327B
A89F
A244
B131
2E79
2D82
31C0
1E8F
3004
B487
2416
316D
200D
25A2
2D7E
B0A4
2062
3121
ABD5
24B3
3051
ADEF
292A
29A6
2338
A95F
2EDE
2D6E
A5F9
2885
3138
AD71
2CD9
B08B
28EC
2CB9
2E20
1CD9
30DD
ACDD
2D83
24A7
2B75
2ECC
3077
2709
9BB0
A773
20CE
2DDA
2EED
2849
220D
9F8A
303D
300A
32BF
2E78
9F7D
2183
A542
A749
AA66
BBD8
3027
AD7A
B2A3
B605
A90C
3911
28C9
B295
B11B
B6F1
22B0
369A
9606
ADAA
B0E2
B4EA
ADA4
AF2B
2994
ACB7
361B
2874
B3C2
B346
9C99
264F
353F
2E7C
B105
AD36
2CFC
97F7
A4F4
B757
A88F
39E9
2C50
B047
30FF
B496
B1E7
354F
2C58
ADA1
2D6B
A4F0
AFD5
AB44
2C04
2ADD
35A9
36C5
B495
B25D
27E7
235A
325B
354A
B0CF
B1D9
A988
AFB6
2CDC
B53F
B3CC
34BF
A607
A4A1
344F
2EBB
AE57
277F
2C39
2E24
3342
350A
168A
A2F6
30F8
2E75
311E
3955
B409
B65E
297A
2F5A
32E2
348F
AC30
B0E7
B1C1
AD00
201D
B203
9C5A
A3E8
864B
2F97
3492
35B8
AD29
9FA6
2BD3
2DFE
3479
3960
A47E
AF65
2F8A
A390
3212
388D
25F6
B4F6
2B7A
327E
3349
3343
320F
AFBD
B09B
257B
A4C6
32E1
B100
A72D
AD52
2A1D
325E
36CD
B171
A27D
AD20
2EDE
3439
344F
2C25
AD7C
2D80
2B79
B0B6
3312
2D6C
9394
3148
2D48
2509
26E3
2758
316D
2A27
A4C9
29C4
A4CC
A28B
33E0
ADEE
202E
2BD0
1CAA
227D
AAFC
9B8A
24B0
3001
2944
AFC7
AC32
ACAE
289F
26A1
2C46
A4A3
AE24
A693
2C0A
237D
9EAD
AE1A
ACA9
13B5
2475
A69A
2887
AFE0
2965
ADC5
2924
A648
AD37
A84F
AB17
AC65
2AF7
A002
AD83
AA94
24E7
AAAB
28DD
2B45
ADDB
A525
9F63
A612
2C5A
2A81
A71A
AF90
2002
AAB3
19E4
A36F
A4CF
AD3F
AD1C
A1B5
2BE2
2A30
28AB
2908
27C4
28F8
2CC9
2D6E
9E13
AC4B
A7AF
A95A
A6D6
2CFA
ACDF
AC66
24A6
29BD
3056
28F9
A00B
A948
26FA
1D80
2C30
A04A
23DA
1C6E
28C7
A297
1C17
2BF9
AD71
2C9A
A879
25B3
9D71
1CD8
B0CB
25F4
A9AC
28A1
29FE
2EE5
AEDC
2786
1CB5
26A8
2D1F
A825
AC9C
A35C
9F15
AB7E
280B
AD86
A4A4
2B63
AD2A
9ADB
A780
AE2F
2BE0
A480
2752
29CA
A208
B088
A9E2
A161
2D98
ACA4
2ADF
ABD2
308F
2552
2C71
293C
2A68
262F
2C79
2D77
8853
A679
9C05
A8AF
2928
2D75
9C85
A7ED
A9D6
29D8
2897
1D94
BA21
2648
2F0C
B266
333C
B4F8
AF26
A7AF
24D7
310B
3103
B3D6
2CA9
2B85
227F
3099
3250
AF9F
A905
2C34
339C
356E
2B33
AE54
B4A6
AC6F
3214
2E47
AF67
A1FC
B2A9
A4F5
29D1
176C
369C
B4D4
B328
2AFC
2EBC
334C
33DD
B01F
A6D8
AB52
1D65
30EC
3236
A6D3
B416
9F0B
2F46
309B
2E47
25B4
B896
AE82
2E30
3146
2CE6
2C7D
B5EE
303E
326C
2A31
380C
B5FD
AEE4
AEF4
2A58
3054
25B0
A24D
B30B
B232
2E46
314C
2AB8
30B1
B51A
AD65
A078
32AF
3434
A9EE
B830
B259
2C88
282B
335B
245C
B774
2E90
2E0B
1A8F
38E0
B1F4
3006
ACF2
AB59
A612
2EC4
ACC7
A88C
ABA3
3121
33DA
B116
20F7
AED6
2754
221F
2DBA
2D74
A8D3
B4B3
A3D6
B2E3
B458
35BE
B108
B3B3
212F
2CBA
AFD6
2881
9D21
2CFA
ACFE
AC4E
A4C8
24E5
B298
3076
AFCA
2509
341D
28A1
AC23
9FC8
AECA
308A
305F
336C
AD37
AD27
2C46
AC73
B4A6
36E3
AFCB
9C87
296D
292B
A1ED
2A64
1A71
B50D
282A
9F8D
A8B3
AE32
AE3E
24E0
2993
24F4
267E
AEA0
ACC5
A895
2C41
12B3
2DC7
2F0F
AF94
AD4F
2CD9
A20B
32F2
2D99
1B4A
A910
AC51
AFF0
2F0F
227C
A840
A21C
278B
ACDD
AAE5
B0DC
B15D
28D8
28A0
A229
32A5
ADB3
B196
214A
2B4F
24F7
AB77
A75A
AAB4
B037
2E6D
9DCA
1BC6
AA30
A96E
AD5C
A0C0
A4BC
A714
A8B0
A534
AC60
27B2
AC40
ADF6
AA28
AE1A
AA34
2BF4
240C
A648
ADC6
2AE1
AB05
302D
2A64
264F
A2A4
293B
AD50
303B
2991
A729
AF50
2AC9
AE7A
250C
A7B3
ACD4
A4E6
AB32
23A1
26CB
2DFA
B17A
281C
AD3A
A580
22A8
26D0
AC4B
A71C
2CA2
AA74
2E1E
2B36
A17D
A2F9
28D6
AC71
2C72
22FB
2E72
A1B5
2EE1
ACCE
2B2B
B07E
2AA9
2F8E
2E68
2CBB
AE7E
21FD
B0E5
AF65
B003
2428
2523
AEE7
AE4D
B14A
2BCD
2760
91DE
AC5F
B23D
AA61
2918
26AA
2885
ADB0
187F
246B
2862
A65A
3044
AC1A
A934
2C78
2C5E
28B7
1EF0
A6FF
A697
A843
A8CE
3666
A4D1
B146
B275
34E0
3352
B44C
A7E3
B032
B1B0
3569
3353
B4B0
2702
1EE2
A461
31BC
329A
B0F1
A4F8
2B9F
B0DB
300F
342D
B05D
2B28
3453
A042
2FBD
2D2D
2634
3065
2423
2BC2
333B
35C5
B2E3
2467
2C86
A4BE
30B4
364E
B0E2
2C68
312F
2DAA
AAE8
346A
ACA6
20C2
2BD0
2465
B0F9
30EF
2FB1
28A9
2FE1
2E52
A9EA
300C
2FD8
2C7D
2676
29FB
2D11
3439
A5AC
2AFF
206F
A8DD
AB0C
30D0
3023
A311
2BD8
2790
AC02
2F1F
3386
971A
AC59
AADF
AA14
2547
368A
2C70
2F97
2CC4
AE24
25C4
357D
2D79
B1DE
2523
B066
33BB
A2CC
A41E
ABED
271C
B02E
A56A
2FE9
2DFA
A9D5
21F1
A319
B04B
3056
2B85
AB06
A95C
24B8
B441
3443
2E43
3029
2FB7
AFCD
B057
30EE
A257
AFC1
2405
2608
311A
296E
AD56
B155
2F48
2413
AE48
9F9F
A76C
2A0F
3131
2C7E
B163
2CE5
A319
9F1A
17B0
30D2
B1E4
3196
AAF4
2D5A
2FC4
2C14
A9D8
2AC3
24FB
9C7B
A71A
25CE
9F3F
B81E
2BDF
AC71
B209
2C7C
A570
2253
A856
2646
B484
29E4
1B63
2320
16A3
2FDB
B441
AEF5
3076
3074
A714
2356
AF52
B30D
3190
2E9D
2B47
A784
3162
AAF1
2805
2DB0
A6F7
A61E
AE67
9669
2F60
2C0F
A99B
2EA9
B43D
A5B7
2723
2C6D
AD83
2C8E
B5B3
AFF9
2FF9
2B6B
A47E
2ABB
B351
B4D1
332C
3217
AC56
2D38
2A2D
AE72
2F00
2EE6
A30D
B0CE
AD24
A8C7
2B36
28C3
2E8B
A295
B192
30FD
ADA2
AE33
2807
A91D
B00D
2A8F
AD7F
AF56
2D07
B154
AB1F
AEF0
2DFC
AE7E
2C12
2C9E
2D4A
A9BB
AB71
AD1A
29EA
AA93
2A6C
2C12
2998
AD3B
28AE
2342
291D
2A9A
2EBB
2908
A9C7
2DE6
3097
B0EA
321A
3010
A386
27CF
2D0A
B202
2CDB
A7A0
2587
2E6F
3229
A56B
B031
27C6
A9D0
2CD8
3423
2DB5
3124
B18D
ADDC
3010
32B6
2970
307B
B1F6
AC95
3074
2DC2
31CB
2A72
B078
AC5F
A5E0
A841
3456
A8FC
AD2E
1A85
A435
26C9
32B5
AB1B
2D4D
293B
98B4
A973
2589
29F4
AD20
A7FC
AF74
B215
2FC4
16C9
AA16
1081
266A
A7E0
2D90
A0A1
A775
2B65
2930
2C1E
1A98
1CCF
2C68
2A94
28B3
AED5
A9C1
AB28
30DF
A252
3293
2AA0
2F47
AECA
300F
A837
AA6B
AF4B
340B
3002
B1C5
26BB
A92C
9CEC
3264
326E
B402
AB69
A86B
A5E5
AA61
2F92
B438
AEAB
A4FF
A9B9
AC24
2D50
B077
24CF
2CAB
25CF
2A31
ACDF
934A
2894
AC16
B01F
A822
2C74
A4DF
2858
9FE6
2701
A9DB
285A
A5A8
1EB2
A85E
2922
201A
3003
ACA1
AA65
A81D
2A88
ADD3
24B3
2A95
15B6
313E
2D4B
2E6E
96E4
2AC3
AA5F
ADBD
1AA6
AF59
249E
2CDB
24CF
A55B
2B65
AEA5
2F6E
2E9B
9DC3
AA99
2C07
A804
ACB7
2DA2
9ABA
AB8A
30B3
A69F
A85E
2943
AB31
2E0F
2A07
3026
AB37
A594
AE8C
281A
ACD3
2DCD
ACA2
2A8C
B057
AEBD
A3A3
AA27
A714
3049
AC16
A542
A85A
1D95
B14C
2C0C
A676
A6D7
334B
26EF
B1B4
14EB
26C9
2A61
2D59
24FA
AD95
23F6
A92D
264C
208A
2721
A62E
2C69
290C
2505
2EE9
AC8A
A670
25A6
2183
2B09
ACBD
B1A7
AEC5
2C9B
2A81
2D3F
B5AD
AE47
AD0D
2FAE
A0CB
1D81
B6B5
A890
3094
32DD
2BF1
9E78
B435
319C
2EE6
302A
2AF9
AE17
3016
B0DA
B272
3021
258B
ADA0
AE29
B4D6
B07E
2C30
267D
2D56
B5AF
B346
ACB6
2F07
1741
A85D
B6CA
AEEE
3088
3367
2B63
AC2F
B6F8
2A80
3070
2F6E
AB68
ACE0
AD09
B3B8
B0EE
2A26
A5D1
B02C
B24E
B552
B0E7
AD89
2CEA
2E16
B480
B591
A918
260F
AAB6
ABCD
B40C
B1E8
3102
2C5A
B088
B00E
B327
2AFA
2B25
ACD9
2ADC
ADAF
B11A
B1B1
A7DE
ADCB
2A8C
A0E9
B4D8
B4D4
AF7D
AAFE
A6DD
30CF
B50B
B59A
2F7C
1CAC
B186
A458
B549
B618
21D6
AD2B
AD54
9D35
AFCF
1CFC
2CE6
B301
A850
ADF4
AC98
B52C
3198
AD4C
A5C4
2D75
B490
B69B
2DA7
AEFB
AF2D
2C05
B41F
B527
A1AB
9988
B25D
AD38
B18E
B3C9
2641
AF07
AE29
20BD
2C86
2C01
2E4E
A6F5
2761
A98D
23B3
28CD
A974
3696
3066
291B
B892
AAAA
B45C
323C
A414
AA6B
B856
B0D7
B3EA
2D4C
AF61
2C7E
B5EF
B3B1
AB85
ACCA
22DB
B02F
B298
B400
B07E
2537
302E
AEF9
B5F6
ACCE
B05E
301C
2E9C
A703
B7D0
25C7
29D2
35AF
A7D4
B334
B716
B060
B09D
27CD
2303
B41D
B408
B040
AF30
B1EE
ACA0
A129
27D4
ACF1
2219
B08F
B31B
3052
33D9
B171
1F93
3579
AD94
9CAF
2F5A
34C0
3560
B4B4
266F
3234
338C
A524
3534
B5B6
A5FB
3241
345C
B217
2203
B71E
AD60
3314
39A0
AE15
A331
B920
B01D
3690
38B5
A4FB
B2C3
B6D8
B08C
3178
3696
AC9B
32B2
B4B0
B2EB
A510
39F1
B412
3451
B879
B088
A476
3BC0
B007
334D
B69A
A937
A76A
39F5
2FFD
B398
B5DE
2A37
2E73
338D
3435
B570
B7D6
9F01
2CF6
35F6
B1E6
2D00
2684
B04C
30A8
38C2
30B6
31BE
B439
A7E0
AB3F
3A60
328A
AF2E
A8D3
A8E2
3103
378F
32BD
B4A7
ACF5
2A19
A5D2
9092
3423
AE0B
AC9A
28C3
A3D0
A445
28D8
AA32
B739
2EFA
B066
3422
3331
AF1F
2BB6
330D
AA66
2929
2DCF
B0B3
2F9D
3157
AA6B
B166
27F3
AF39
9CFF
2E9B
2776
B3D6
A7B3
B0B6
AF04
2AE0
2EB0
B2A1
ADBB
AF81
ADD1
303E
A981
34DE
2F56
AC91
263C
3192
2979
A99B
A8D3
AF12
2C5B
9678
A962
AA73
B1D5
AA07
B59D
AC54
1D76
AE86
B341
2F44
B74A
AD9F
A537
B01D
B55B
2808
B45D
27D8
A46D
2D92
2922
A9FB
A0FF
289D
28C8
B205
B09F
2C3E
B1C4
AAA8
AD42
25E9
B4DA
2872
B41A
A88D
AA98
321C
B51F
A9C5
B663
ABD8
1EAC
2E3E
B735
AC6A
B52D
2F09
AA2F
AED7
B02E
315C
2C33
2D0E
2E1E
2721
B58D
300E
AE3B
2129
2D13
2D04
B550
2890
AD9B
AAB4
27D5
34D5
B591
B036
B084
25D2
3013
3307
B5E9
B2D6
ADF1
2C85
AE31
2C4D
B5DA
3405
25E7
24CC
304B
AAF0
B440
2CB4
B01D
B1A5
2682
AC3B
B109
B1BB
B026
ABDE
A572
B136
B29C
B4E1
AF18
2BCA
AC74
29F5
B1E0
B2D3
2E6D
A3DD
A7CD
0F5F
22BF
2597
384B
9C64
27C7
31FB
23D0
2CA9
AC6C
A131
2D24
331F
B15C
30D8
2582
AE25
AB29
30A9
B1FC
3148
ABEB
AD40
2DB0
328A
B1F7
30C7
B094
AF60
2CDD
324B
B156
31AD
1D0E
AB9C
2C46
A84D
B0FA
1EB9
2C2C
AC15
31F3
A62D
B31E
A664
331E
A0EF
A660
B262
B0DB
B169
32D4
2A23
236F
ADE6
AE6E
AC19
2D0A
A561
30FB
2A74
AC93
2973
2D69
AA74
AC12
2F4C
AE5D
ACDF
254F
259B
B003
23A9
A1BE
B213
2D11
A6DD
AFCA
B144
24E0
B326
338B
311B
B0CF
B3A3
2E1D
B175
3155
2124
24F2
2E97
2148
AF12
2CB7
A203
B329
306E
2986
AE8E
2F43
2A8B
A83E
2BEE
30FC
ACDF
B247
2611
2CA8
B13D
31DB
AC6B
2865
2175
ABA9
AED5
3439
ACCF
9C15
A85D
225C
2CAC
A607
B0E3
B04F
2A50
AF93
3556
AAA5
27F9
248E
2FF0
270A
3438
3123
A6FF
AF7C
22E6
A264
261B
30C6
2BD2
B0B2
A039
AF5B
1CF8
3070
2EF2
B157
ABB4
2752
308E
2CB3
AB56
B2ED
A30A
2486
2936
1FF0
A414
B360
9B81
2E47
301D
A6E8
26BE
2FF1
A852
2D2E
3297
AF56
2908
2F7A
29CF
25DF
327E
AFEB
A9D3
31BB
2E39
ADA5
3083
2C09
AE9C
33EF
303C
AD28
1AFD
1B83
AD19
346F
A3CB
1811
26D2
2FF8
A176
AC26
ACF1
A9F8
29A2
3093
2ED4
A2E9
ADFE
ACB7
2B5F
3319
A6BE
2BE6
28E0
1D71
306C
3667
AE61
3209
2D44
A9B7
2A7A
338C
93BE
348D
2836
2B31
B694
2FC0
298E
B40C
27D6
B072
B529
350F
2D33
B040
282D
A8D1
B584
3501
2D57
B228
AC6B
3185
B325
3542
30EB
215F
AB06
2E37
28FE
2F34
2F9C
2EF9
31AF
9BE6
B7AF
2C36
2D17
2BDC
3224
26FC
B819
A991
3188
ACFF
3036
2CA6
B8B2
A931
3441
B03B
A7ED
323B
B628
B09A
30B7
B045
AE47
2E9A
B186
B438
2D3A
2856
322B
2C31
B3C8
B4FC
3228
3009
247F
2E49
B291
B51C
3247
AB0D
A417
A9B4
B23D
B672
3234
22EE
221F
A797
B424
B77B
33A1
A457
A80E
2C8E
B484
B55C
290C
2D14
A651
A91E
A7EF
1C2E
208C
BCDD
B072
303C
ADE4
291D
B01A
B32D
B17A
3098
B26F
2ED3
AC22
3030
A4EF
2F57
AF39
2F9E
AA4F
2949
2114
3138
B2E3
31E4
30D2
B1CF
AE27
2CE4
2819
A565
343C
B080
A508
AB4F
B1BD
2EEA
B4F5
301F
AE88
A9E2
B7A5
B2B2
B31F
308E
A8F3
A85D
B8E6
B162
2DA3
322D
AA17
2F6D
B9AF
2DD9
35C3
346D
9AFE
AFFE
AE16
2661
3725
3017
3021
AE23
B166
29BA
B0CF
3231
2935
292D
B85F
B156
AC91
31A8
2F36
3032
B9D4
B0EC
8B25
2668
2592
26F5
B8E8
B26C
34C4
3531
214F
AC23
B3D2
B35C
3725
354E
30DE
B3BC
B193
289F
1FD7
2AF3
2DCF
2987
B876
B381
A743
2C32
AAEE
2DFD
BAE2
B072
AC96
A1B7
AF30
B46C
BA58
B4DF
340E
3416
AF62
A999
B79C
B86A
31F1
34EA
3191
B2F4
3005
A136
2FA6
AC37
3327
B19D
B00D
3397
AA0C
8C71
2FBD
2FA4
B352
303F
B095
2A6F
AA0A
B0E3
B75F
A13A
ACD8
3100
2002
B5BC
B2AA
B3C3
ACCA
3287
271F
A85A
288D
26D0
2A27
B825
A809
270A
AFB4
AD7E
AADB
2D35
2C4C
A841
B1CA
AE0B
B049
2F89
2FED
AE30
AFD0
B40D
A940
339F
2618
A488
B1E8
B310
AC84
A9C1
A1AA
2A59
AECA
B3F3
A4EF
A8E4
B0E9
30D3
3102
29E0
2D0B
B377
B08F
2E41
3069
21E7
2CA0
A5BD
AEA3
2C60
3163
A729
2FCB
2F39
AA13
ACB8
319B
2D33
2E21
2A75
2CD7
2C51
2DCA
298E
2A80
2E04
AA08
2B7D
2D0F
2DD4
A564
ADB3
ADDF
14BD
2F33
2763
23B0
224D
ADB5
2D2C
34F7
2A64
2D62
9845
9F41
281F
3506
3434
2EBC
AEF4
2BD4
A7CD
327D
3334
2ADA
28E0
A860
A6F4
AAEE
30A0
AB2A
2EA3
AD55
A2D9
B1A4
2DCE
2F61
2F4E
A9FE
2630
1F92
3077
2E70
2D67
11BA
2ECD
2998
348C
3114
27D7
A612
308B
2B62
2FE4
2F40
3152
2C82
2D18
1F71
A7D9
2D0B
A829
A838
21AD
B18A
2BB1
29E6
2E7A
2518
ACA1
B109
2AFB
2BAE
2C03
2C69
A891
A939
2F80
257C
2FD6
2DE5
A46E
AC7E
3126
29AC
313C
A528
A58D
2086
27AA
1FB4
B330
2307
299A
AACC
ABCB
A4D1
AC60
A36D
B053
AD83
AFA2
B176
AACA
29DB
25FD
B089
B13B
AF14
253B
2CA7
9C0C
B425
B240
AFDD
AA4D
2912
A087
B163
A859
AD16
2F70
AB9A
2C73
2C85
18DC
9DAD
B110
A0AC
2F57
1927
25DC
2508
B215
9820
A3E8
A656
AC05
AC22
AB70
2579
0475
AC52
AA91
2803
AA37
9827
ABA7
AA66
9DA0
A8E8
307E
AEA8
2E66
A24C
AB98
2D5E
ADB4
AF31
27C5
2A81
29C2
2BFF
ADFA
AC4C
2E4A
1A1A
2CDE
2D58
26F4
AF38
29B6
2A0B
340E
2E8E
1B5D
AD6E
247D
1DBC
303C
2F40
A5BA
22B1
2B05
B22D
A3E9
270E
2E8F
B028
305B
AF7E
2A29
3149
21A8
AB4F
3034
9866
2D69
3213
3160
AC5E
286E
2EA8
30F7
30F7
2F51
94E2
1F97
2E4A
3177
2A73
8E8E
A60D
9DC8
199D
B02C
2B34
2D30
AD30
24EE
ADB4
B057
24B1
2872
AE08
A607
2EAD
A82A
2826
2FDD
AEC4
A92E
30BB
27E5
2951
26AF
AAC4
2854
2D2A
3209
A6EB
2480
A912
1971
29A6
A4DE
28E2
25C7
1D65
A310
2D2A
34CD
B381
A7B5
AD58
3282
3367
3451
B413
B5F9
B298
2F7D
2474
3395
AE2D
2F86
AEAB
AA6F
AA03
327B
20D1
2EB3
A6AA
A2C3
B299
357B
2D6F
2C51
9A16
2F7A
344B
372F
B0EF
B89C
21B3
A216
3291
3855
AB64
B765
B540
A6F0
2F71
343A
33F1
ACD6
B218
20FE
AE4E
3580
34FB
AD11
AE30
B13E
B531
35BB
307C
3093
B07E
3182
34A2
38E2
ADA9
B83E
229A
A1FF
318F
3430
3093
A743
B0FF
27DC
3083
24A1
328C
3189
AC66
A9C5
B25C
B464
3626
ADBF
B0E6
B002
B676
ABD8
2ADB
318F
AC18
33BE
3273
381D
31BC
B389
9E50
ACE6
3617
2835
AE95
3225
ADD1
B1A3
B2D5
B5A0
3482
3558
AE3C
A4DE
B4E2
B9AC
26FF
3270
3087
B5CF
B657
B724
B1BB
323F
31F5
3318
2F65
A6D9
31BF
29F1
3018
B131
2F00
B41B
AE19
3622
31D2
B436
2E06
B765
314D
32C3
1E5A
2EBF
A3CF
B69F
B32F
3465
346B
B29C
B0DB
B916
B19D
3800
2174
28B2
285F
9DA1
A83A
36B2
2235
ADE7
ACF0
2584
2EC3
B37E
2266
A853
ACA4
214A
30E0
B222
A9FF
2CB0
ABF4
2F4D
2EC9
B0B0
A98A
29F9
ABE8
302B
3153
B32D
A5AF
2F1F
2848
8D60
3115
B4AF
9978
31A0
3271
2B75
3067
A4CC
ACE1
2C4A
31E8
2CAF
3344
9A30
AB54
29B3
2D50
2E7E
33B3
29DB
A7F8
2BB6
2C1C
2F87
3437
313C
2A90
2E07
A777
2AE6
3051
2995
278C
2280
3074
B20C
13F6
2B85
1C4A
2C9A
332C
AE60
213F
3076
2B89
AC55
319B
9D2E
1CE6
309D
2358
2BB4
317E
29D2
28A5
2D19
2A87
305F
2F5F
3142
302F
AA42
2174
B177
2CAC
B1CE
B0EA
2D2C
A92F
ACCC
2600
B213
B45E
3387
2C1D
A92F
2E9D
AF62
B493
3484
A440
A821
3274
AD6F
B175
3428
118C
2CBE
30E1
A9E6
2561
27A2
A64C
B28E
B0E8
A969
AEAC
2BF2
A3B5
AC70
B1DA
1ECE
B3BC
2F65
AE5F
97BB
B35F
A7EF
B3BE
2D2B
28DE
AA20
B227
A463
B3E8
2C48
A681
2AE0
244E
AC73
B03B
2CA5
226E
A704
28F9
27FD
2922
385C
A8AA
A94F
AC36
B118
2A27
30B4
ABC1
A92F
A926
AAF6
2A10
327C
9C23
3082
8757
255A
ABF8
30B8
2E1A
AC0F
A0C2
956C
23F9
305C
2FD0
1CAB
2C4F
284E
24F1
278F
AC1A
B0A8
A883
A803
A962
34EA
269E
A829
AF72
2B7C
A809
34B9
2C42
AD4D
AAF5
2C40
A9A6
32BF
28F2
AC39
246D
9CB4
2EF7
32F6
A45A
305B
2FFF
2480
2B3D
A744
ACA9
AE88
AC08
2A08
2B20
3275
A68B
2C5C
A500
2EAD
2F5D
2F64
AE3B
30EC
A41C
28D2
306A
B0B3
AF87
3058
2A97
2D4F
298F
B3F1
AEFB
2DB4
2901
3163
928C
AF67
2B48
AC04
AFB1
1B44
A855
1508
30E2
AB39
A453
9D8A
9BD0
30FF
2DBA
AED9
ABD5
2D6C
AAB9
2EC2
2FA1
B384
A89D
3242
A6F7
2E0E
2FC1
A443
2C34
34D9
2F9B
2D6C
30C2
AD01
B554
3408
30B6
2F0A
300A
A9E5
B596
3151
3093
3228
2997
2E3A
AD21
9D29
2F66
3314
A58D
339C
31C0
AD1E
3437
2883
A751
33BB
32DA
9D51
2A99
28F1
98ED
A96C
2945
24A1
90DE
30BE
AE6E
28E1
32AD
B482
2705
B175
AC90
2700
3238
B204
294D
AEAA
AD31
B222
B00F
B08D
3213
2912
AF01
9C57
B7C2
B354
316A
2FB9
26C7
AD4E
B826
AC96
2394
32EF
25EF
AFC0
3130
2D1C
A275
AC6E
3063
260B
A447
2A9E
1715
2C66
2D03
AD58
B3D7
A567
A005
32C5
3015
2D23
B64B
B50E
2263
2FB9
2518
ADD8
B22A
B477
294B
2E70
B0F6
3441
AEB2
3041
2EF1
B315
B1BA
32F1
B3EB
A29C
3501
2AED
B235
312E
B539
B5CB
340E
35E7
B25A
344F
B67C
B923
3422
325B
B428
317E
B480
B916
2EFB
249A
2AC1
AE3E
2862
390A
B04E
B6D9
32B6
B4C0
A9D5
3905
2ABB
B8FC
338C
B49D
ACE7
38F1
ABD8
B8F3
3290
B3AC
B5FE
3705
B0F0
B5E3
283D
B7F9
B865
3628
A9CD
B027
30AD
3040
AC45
33FE
3208
366E
3336
2816
B0CB
34B1
33C4
3552
2F05
AB65
B117
32B8
340F
3666
31A2
32B2
B089
2F18
34C8
35BD
2C3B
296A
A846
301F
33D9
318A
A955
2A0A
268D
0150
A87A
BCC9
2F47
A6D7
AD22
B464
2B31
3136
A5F5
AC46
A877
B0F0
B046
208F
ABB1
A9C8
2B94
ABB9
B20A
3598
2DB6
9C3F
30D3
A848
B0FE
36AA
316F
2C8B
2E66
A918
AC6F
362B
A506
A41D
AF60
B195
A59B
2D1A
A825
A144
3469
32BD
B2E2
29AA
A099
A93B
3264
35C2
B0B0
314E
293D
AE9B
294B
35F8
25A9
2F9D
A940
2F4A
3246
327A
A024
336D
269F
27E0
334B
34E6
A554
B4C3
2558
A8AF
33F0
386F
AF42
AFCC
25F1
AC10
2C34
3563
AC99
A2C8
AABF
A8AB
B6F4
3925
AE2E
B506
2ABE
32FE
302C
3497
B1D1
2E95
A6EF
9CB6
A72F
381F
B4D3
B5E0
AABA
2812
AC7C
2CEA
ABAB
B551
AB78
AAFD
AF1B
AA95
2BED
B566
AFA6
B41E
B508
3730
B2A5
B7D6
2C18
A053
9A54
2C12
2EC6
2918
2B11
32B7
B294
3517
B20E
B414
B2E6
2A77
B13E
A4CF
AEBC
B46F
B4FA
B3C1
B13A
A1F9
2968
B84A
B19A
AFBC
B3F2
33D9
3167
B572
341D
2E87
22A1
B17E
2EE5
371A
286A
2866
26C8
A482
29C9
A011
AC81
17D2
ADC2
B103
A973
2696
AB28
B061
AF21
2771
AA91
2DAE
AA13
28EE
2CB3
2F8A
2258
AE2F
AEFC
2EC0
2D12
2A46
2FBD
AEF5
AFDF
2195
32AD
A9F4
33FA
AA7A
A748
2A9E
B31F
B4B4
B458
1DE1
A617
AD31
B43E
AEC0
B194
3163
260D
29ED
B2C5
28E3
94CE
B04D
AF1B
3050
B3CD
2C63
3049
B23D
AE52
32CD
AE04
A9E4
33FB
AFB9
21CD
2F22
B47E
AD39
B2D1
2C23
A429
AE26
ABFB
B49E
B266
3092
28E3
1F2E
B2E7
B2FB
9C36
A831
AB4D
2F69
B503
B04F
9D46
B489
AF6B
3274
B1F8
AC52
3154
B554
28DA
34B3
B0EF
1A90
B070
AC80
2CC1
A90F
AF4B
B42B
B24F
3083
2D6A
A9D0
AA1D
B573
9A6E
302A
2DE4
A05E
2FDD
B448
B0AE
AC6D
9BE8
249B
94AF
B278
AA7E
B48B
9DE2
3447
B2FE
2A12
A9B2
2BBD
ADEC
19EE
AD14
B264
A78B
2C7F
AA8D
AD30
9D29
AF09
2C81
3061
98A0
A0CA
2F51
A622
A862
A233
2427
2C80
2D3D
1EFA
1A7E
B15B
9D3E
A09E
2985
A6B9
29DA
B71C
310F
B1A6
ADFD
A1BE
B253
30AD
2D88
AFF2
B030
A4C5
B206
B04C
29FB
A8FB
B051
A1A6
AA77
AF7C
24B0
A2B8
B115
AAB6
2DFC
B35E
A7FF
2364
28F0
ADD1
1AA1
B1E4
2C5E
A4E4
259B
9959
AD79
A511
2A72
ACEF
B23F
AFC5
A575
B097
2AB6
A976
B0D5
B43A
30A1
B42B
AD5A
2C73
AEE7
B2BD
314E
B658
B07A
2D14
32DC
AFF2
3039
B550
2917
2EDA
AC2F
B080
283F
2FC8
AC3D
2F5E
B2E4
B24F
2EFF
2E5C
A9E8
2EFD
ACE8
B430
310C
1DBE
1EEC
A969
228D
ADF0
307A
B1B8
281A
22AC
33E7
A8A9
3105
B27C
B012
2A4E
A4C7
B1E8
2D05
2F6C
AC4A
2D73
20A7
2F26
3141
3332
A9AD
2C06
29EA
20F4
2E86
3387
288E
256C
2BA1
3241
3265
2958
30D8
2FD2
3052
3323
2F94
A858
A51A
295B
2AFF
2FC8
B033
30F2
AC40
23F9
32C4
32EA
AF37
344B
AC68
286C
3532
3205
A939
3157
2015
25FC
349D
33CA
2A3E
29B0
A2FD
2CD9
3402
3296
2F74
A1AD
A21E
1BD5
A81B
A21F
10B6
B55C
AD6A
AC5E
2C22
B0D2
B039
310F
AB35
9CC5
AA8D
AECD
B32A
3077
2C25
AB17
AC99
AC0D
B22B
2E77
2C95
A811
AFAA
ABC8
AB05
943D
ACD6
245D
B041
B037
2487
A997
AD74
B163
2C8A
A9CC
AD9C
2DB2
AC7F
2899
AA3D
AD5E
B2F4
A7CC
AD52
A68A
ABD4
2426
ADF7
B10B
AD34
2816
AE69
2990
1D8C
B374
AEB3
2D84
A659
2C2A
2859
B2C0
A45A
A55E
2960
ADB9
A360
264F
9EA5
3016
ADF2
AD38
ACAD
2B4E
1A71
27A1
2B90
A18B
29EE
A1A0
ABBE
AA7E
2FB2
A85F
2DFF
B1CE
2628
24A5
2E94
8D92
2D77
AEE2
215D
2BA9
AA53
AEB6
A879
3028
2975
30CB
B190
AE38
1B8B
20C6
23DE
2E38
ACA1
AE19
300A
B1EB
A83C
A9F4
28AB
28BF
313D
B28F
1B64
2BDC
27BC
244E
2EF3
A584
2CF2
A60F
2972
ADC7
A352
2D4A
2CA5
2CD2
AE4D
A948
AC26
26AC
2B52
27CB
28C0
241F
2C39
28F5
270A
AB87
AC86
29AD
30D8
258A
2FF5
AA3E
2A55
26F1
2CBA
2C04
A476
293F
267D
2416
9C5D
3367
B4B8
3248
1D69
A861
B1CA
B937
AE6C
B268
301A
9FCC
202C
AFBE
A8FF
AA5D
B090
2933
3190
2C10
2EE2
319F
B9A4
3155
348F
34AC
2052
A78E
B72F
3197
351F
345E
B06F
32A4
AD2A
33E1
B4BC
B8C2
A690
2E73
B130
33C3
B13D
B2B9
29DF
2E30
B764
A815
3490
33E1
32CC
2D11
BA22
2D8C
36B0
372D
2EB5
B0E7
B546
2E40
3703
3450
A2D2
3408
B04D
37DE
B5B8
B2CA
2D1B
2F93
B730
364F
B453
3086
2ECE
A1CD
B65D
2D44
2F2E
34E9
3240
A13C
B96B
B43B
38B3
366D
30C5
B4AF
B850
B107
35FC
3663
3141
2FEE
B028
3822
B199
A7CC
2EFE
308E
B798
34B3
B3A8
AE34
AD83
B132
B867
AB62
358A
A319
1A96
9C9E
BA80
B8B6
37AB
35C0
306F
B464
B704
B39E
35D5
35E7
3339
2CA4
B1B0
27A4
29B9
3104
3237
33E3
BA53
AEC3
2C34
B2EB
B053
AD8D
BB71
B54F
3521
A05F
ADA8
A9F5
B761
B81D
363D
2D28
2EEA
B51E
A605
A01C
3279
A62B
A7D5
2822
A81F
263F
201B
3026
AB95
A4E1
AD6F
A943
0065
B056
ABF6
283C
2F73
A3DA
31E5
228B
2804
2A31
2581
2957
3144
3071
A539
2F0B
ACDD
AAAC
2F45
317F
235C
29FD
B0C7
A82E
3076
2D06
A437
2CD5
AC1B
221D
27C8
AF54
A9A4
249F
2CC8
316F
2C0C
263E
997F
2118
2651
31EA
2F45
3260
2C53
AD67
14E1
317B
1DD4
3668
A60C
AB72
2BAA
1AC7
2AF3
34FD
A88D
2A7A
289D
A8DB
2910
B0A0
B065
2A3D
3339
B04C
263B
2A34
B06B
2D20
2FC3
30EA
A05E
309A
B0B7
2436
23D3
336C
A40D
355F
AB4B
27B9
3085
30E7
A5BE
32D7
A4D7
AD88
A598
AF8C
A12D
B166
ACA0
B1C2
A187
AEAE
AA42
B2CC
9981
AEFB
1C63
24ED
B2EB
AA9B
2379
AA26
9AE3
A929
B382
26DB
A3F5
2996
2F86
AF10
B28F
25E7
2B47
AB75
2CA7
AB5F
2F15
AEDA
A881
AA22
2C71
A197
303F
B0D6
A949
ABAE
2C44
2AB9
2D04
AF2D
A17D
2164
2E87
2E81
A3FF
A996
A2CB
1B3E
9583
2CD8
AE6C
A7D4
2A24
9645
269D
9E75
27E5
B3D1
2A0F
AADB
A420
29D9
2FFD
261B
2540
AA6B
ACFF
A7DF
3097
224B
9E99
2822
B082
2DC6
28AB
ACD0
AAA2
2E72
ACB2
2D0E
2A05
B06B
AD57
29D4
ABAA
2E27
2FC1
AFC5
25FF
AD1B
2581
2698
2CA3
2C4E
AF3C
A5B2
B07B
2CBF
2DAF
314E
90DC
207E
AAA4
2DDF
2566
2924
265E
2EEB
B1D8
9CDE
2534
AF2C
A5A9
24D1
B282
AB43
17C9
B0EC
A8AB
A489
AC2A
3067
A4F4
2E73
2CE1
AAC1
A379
2AE5
A739
310D
28F2
A6FC
AB6E
ADBF
A8E9
A532
224B
9C37
B357
B1F4
ACBE
B106
2D7A
28B9
B2C4
B0C1
AE03
ADB1
AEEA
A78D
A845
2C4B
B13F
328B
26CC
1962
A585
9A45
AEE0
315C
2BDA
ACBD
309A
ADD4
B11C
AB24
2B44
A604
3145
B092
B2BF
B4C6
2BD4
26B5
27B7
B452
ACAD
B0BB
2BF9
ACD5
20A7
3319
B142
2EE0
2BC1
A9EC
31E7
2D10
B40C
2715
A0FE
AF63
336C
AFA6
B1DB
AEB9
9EB4
AD6A
2C86
B1A6
B1CF
B452
A3C8
27F8
AC02
B349
ADFB
B077
A818
22D6
A940
AA24
2085
3435
2606
2141
ACD8
A6B0
A444
2A8D
2CC5
245C
26C2
A813
AA65
3018
2CC5
1CD0
2F11
B0FC
AAB2
29EF
28E6
222C
2AE6
B049
AB0E
240C
2C66
26F7
29A0
AE2A
A713
2CDC
2BD7
985E
A246
AE26
A137
A8E5
95A8
25DE
291D
0E92
AD5F
30DE
29F0
AE2A
AC07
3032
ABD9
A426
291C
1E7B
A501
2CB0
AAC3
2500
2058
29F6
9D24
2883
8DCD
2DFA
9E83
AD19
2F2B
AE1F
2830
AA92
15F4
229E
308A
2896
AC1F
AB42
AAE2
AF29
A748
306B
A697
B1F3
ABFD
AA0D
2C13
9EE8
2725
2003
AA9D
A48F
AD57
A761
A263
AF8C
23D3
2C2C
B293
AA87
9C5E
1E1B
2C8C
3249
B2A8
AFB0
1CD4
29D2
2735
2A52
B131
2E5C
AC9F
3062
2C5F
1F50
A197
A8E3
2C78
9D48
2923
ACF6
A743
2BED
21EC
ADA8
B0A2
29C1
2653
A8EF
266F
1EC8
20B8
2FE5
A7F0
2CAF
A102
2093
2678
B079
2136
2FF7
A07F
29F2
A6DC
2AF7
309F
A86B
2B1A
A8BE
9B64
A84C
2FED
288A
2C33
AE85
2A42
2843
1D10
241C
AA05
A4AF
2748
B1A7
36C7
3031
2321
AF2F
23D4
AEFF
34DE
30D5
B10F
B569
2558
AF78
225F
3026
AD20
AEE0
2199
ABAF
B194
32C6
B475
2CD6
21B8
2B82
B674
28FF
B3BA
2DF0
ACFD
B135
3854
3227
334F
B75B
AF14
2F67
3582
345C
2C64
B86D
B0A3
2CE1
A456
3469
2601
B11C
ACA3
AC4B
B288
3037
A5C1
2DAF
2C92
AAC8
B7A3
339B
AE9A
2F47
A6A2
ADE9
36BF
306F
36A8
B657
A0AC
345D
345D
35A9
2B44
B671
AF09
2D6E
269B
34B2
ADB0
B183
27E5
24A3
B05B
A986
2600
324A
30A9
B3CE
B76A
ADBD
2631
341E
ADAA
B08C
3771
ACEF
344F
B473
A83F
2DFB
3403
3288
A3B5
B4C5
1D02
1DA8
B1FD
312A
B0F5
2420
25F3
A0C9
B0EA
B3C2
AC38
35E4
30A0
B244
B87F
B4B7
2C7B
38E5
AC53
AEE3
355A
AD94
2E4B
AC92
AA50
2C8F
2C03
3563
AE1E
AC41
1F99
3123
B371
30E0
B360
2925
2AB0
A956
B46C
AAC8
2C76
351B
31D2
B111
B0F6
B3EE
2DB1
3921
2A2E
A57D
A6E8
98DF
A952
3D56
315C
2BEB
B8AC
365C
B42C
2F00
2DC5
334E
B9EF
242F
AFB2
3439
AAF1
2FEF
BA8D
B051
A4B2
2E30
2ED0
A8F1
B5B6
3466
A807
2B6E
2D4F
AB39
263B
3782
2A3A
ABD6
3453
1D59
B937
AD42
AFA3
3323
3327
B2D4
BA8A
B4FF
B471
2CA3
A925
B5B0
B85F
AA27
A854
AC62
ACCF
B018
2C3C
AD8B
2FAF
A44A
B24B
2DE9
30C5
A8CD
2E51
A815
20D8
30FD
25D6
3229
9AC6
34A1
A9DF
A97E
AFBF
AC56
3204
3919
A9BA
2B63
336F
B412
A4F3
3AB5
3077
A79A
354F
B1F3
B047
2F75
B18F
3125
3655
2BA3
2F92
B10A
A686
AFD4
3579
2B89
A91A
B410
AA71
B134
3399
B422
A809
B6C4
B09E
B355
2F52
B8A5
A6C8
B428
B1A1
B42B
375E
AC4C
2F6A
A8ED
AA80
345C
3596
35A9
AF66
AE17
2E9C
AF22
212D
2E78
2467
ABD8
2DA9
3437
30DA
ADA4
ACA0
B44F
A92B
3124
2333
B535
20D4
B6CA
AF87
30E4
3047
B5B6
2ED6
B110
A95B
3653
3907
B803
34C8
32E6
189E
119D
A541
A375
9AA7
2016
AAEE
2B54
AE18
2B7B
2EA1
A0E6
2A9E
25C1
A938
1EF7
28EE
31DD
2D82
AF17
292D
29F7
2331
2CB2
3140
AE46
2897
AB93
B026
AC97
2888
28EB
9F88
AD9E
AF45
B20A
A268
1E39
AC75
3117
2CE1
2DEF
2ED8
27FF
8F42
A6B6
2EE9
32A4
2CA2
AD85
2DA4
2B5E
2DF4
3185
31DF
B119
318C
B429
A882
2F54
2EFC
A643
A4E2
B326
B028
ADB0
2EF3
2F46
AFD4
31E4
29BD
34CD
2CD9
2ECC
B0F0
3010
2D25
3559
2B79
A293
A707
308A
318A
345E
2EDD
A988
AEEE
320C
2B22
2DA0
3083
B0EA
B17D
A82F
232A
A8C8
2BD7
2E35
B40B
34AD
3206
3129
9EC5
3277
B3AD
3587
2FA2
3187
A646
2C9E
B0D2
332B
31FD
31B8
2634
1A47
2447
322E
2CCE
3048
2EB1
B02A
2758
AA1B
AA0A
1C0C
A443
2F02
AB66
32EA
2EE3
AADC
A22B
2982
A128
3407
2F32
AE33
AE8A
ADE2
AF3B
340D
3030
A65A
AA7E
AE49
066C
349D
2A69
2AF1
2803
B10D
ABFE
3159
2849
2F9F
204E
2539
A761
A8EF
1C49
B5F3
B2F9
3102
AAF7
B1D1
33BF
30D6
AEB2
A925
B293
A5F9
355C
3482
A0EB
190B
B5AE
2284
3374
3857
A4D1
2A10
B6E5
2A75
30C5
3711
3129
B1AA
B6B5
32B7
31FC
342E
9D6D
A03D
305C
B34C
B337
B30E
A996
2A26
AD53
B579
B0D4
B684
2501
305A
B199
B439
9AE9
B742
AC2E
351C
B445
B591
3409
B705
B0AE
2EFA
B34C
B436
344B
B1DC
2E3A
A7C3
2D7D
3391
B52B
3515
28BB
ACA1
2C1C
32A6
B5A0
AC77
AE35
AEFD
AC6C
25A8
AE55
B43A
AD2E
A862
ACB3
B5DE
2D47
B69F
AEAA
B111
B2AE
B75D
2E04
B51C
2AE8
2D12
2BAA
29BA
B0AF
1E41
2B37
29C4
2B59
2BB1
B05D
AD8B
2E0C
2CE7
B291
ABFA
AC24
B292
2E9C
AAC9
B5D2
B2B0
2EC4
B449
2834
AE53
B543
B3C3
30E7
B090
317B
A3F7
B05E
2E4E
B168
2F37
309E
A30F
ACE4
2750
B1D0
2E43
2A2C
33AF
B38A
B1B4
B06E
AE3E
A6FB
2CD0
B55C
B2F7
A828
A974
9EA7
AFA5
B590
B4AA
AD10
AE93
A69C
A78E
2872
A8F8
28EC
B430
AD42
2C33
B5EF
B27D
B00A
AA6B
A896
AD0F
B0B2
A85D
AB7E
2CD4
A4BA
ADC4
B66F
311B
3067
AF5A
2CD4
304A
B482
1CEE
2EA0
184F
B18B
A337
ACF3
B4A8
257D
320D
9DDB
2CEB
B4F1
B481
B2B5
2BCF
AC1F
26A6
B6E4
B340
A185
338C
A85E
22DC
BAB8
28ED
30E0
32C2
2CE0
AD2A
B6D9
B05A
23BA
24D2
A45D
1AED
B09D
B47B
A92D
A6E5
2E93
3010
B71D
B001
B62C
31AE
344B
B051
B5CE
AB7C
B468
3473
303F
B1E7
B28A
A4BB
2492
2CC8
2389
B465
3220
AADE
299E
2F82
ACA9
203B
3267
9BE7
A9AF
2B0A
ADA0
3014
B0BF
348A
B272
AE91
27C0
2B3A
AF01
2F22
345E
3440
238C
34A9
382D
AB61
3525
32F2
2A21
A89C
3A9A
A08E
196F
B56E
A66E
333B
3A40
308B
296C
B62A
2E47
32C8
29AB
2D56
B0F9
B425
27CB
2C07
995A
B0E1
2DAC
B2D6
B077
ACFC
347D
B556
AC65
B319
B240
B1D0
3919
1725
1164
B2F7
ACA3
3444
3990
36D3
2CEE
ADDE
17E1
2720
28D4
28C4
2682
B9B9
B0B7
AA42
2CC0
362D
AC25
B3A1
AA40
B4CB
2E49
36A5
ABA5
ACF3
261F
245A
A935
3155
A812
2C9D
2BED
3057
ACEA
34DF
A349
2ECF
237F
B0D2
AEE0
34A7
3074
A8D8
2478
A8D3
A76D
34BE
9CAE
30EA
AA50
27FC
B034
353E
3109
3194
2664
2D92
AED5
33CD
3239
34AC
2F40
2B44
29E3
35F4
3401
32B1
298C
B536
B474
3525
34CD
2B78
313E
34BC
A9D0
19F0
AC13
ACAF
2EFC
257B
AD26
AAF3
AE82
ADBE
29F0
ABA7
305B
ADB1
1FB2
AD76
B2BA
2C40
AAE6
B106
3597
B35F
B2FE
AD4C
B458
331E
363A
A8FF
A9E2
A374
B344
B345
25D2
B3C4
28F2
AD5E
B31C
B573
2EBB
AF5D
A288
3374
B651
B62B
2985
2312
B314
363A
B600
B4DE
2EF8
1F86
B27C
339E
B350
B367
34A1
A108
0C43
2877
B4B5
B0E3
2FC6
B261
A871
2B13
B6D0
2516
3074
AC39
ADE6
ABA2
B725
A50C
AD00
AC52
AEBF
B03A
B5E6
B09A
2C3E
B045
B1DD
AD18
B780
B065
A664
B5A1
2835
A7EB
9344
2892
A827
3C60
AA52
ADA9
A937
2DAA
2DEC
B27D
A96B
2EDF
3099
3079
2BAB
B489
AC52
2DF3
329A
2F27
2C21
B011
AD22
9F8F
302A
A318
2E4A
2F8C
A7BE
2358
99C9
2E87
2AF3
30A9
1BE4
2E14
B1D7
2AC0
2D3A
A430
2B48
3227
A988
2C68
AEB8
AEDC
25BE
2D05
A674
170D
ABB9
A564
A942
A850
2390
AD2F
AC47
318E
A990
AF2A
26FA
2F6D
B070
304E
2649
AB75
B24E
ADA6
2B11
18A6
2FB3
219D
B2F4
A8B7
AF80
A385
2B3E
ACB0
B420
AD2A
AAEA
3149
25F1
ACDF
B238
AE32
A8F6
3468
2C44
AB68
A9B4
9DF2
B047
3441
AD0C
B081
26BB
B585
2D56
2505
2700
AE63
0C3E
B14C
ACF8
2E95
2A06
B10A
AF61
B1BC
2414
3034
2FF7
A782
B26C
ADAE
A8BE
3086
30BB
9C8F
AD4F
ACA8
AC78
2734
A9CE
B1AB
AB91
ABAA
2C1A
9BB2
2508
A2E3
92DD
227D
AB2A
2DDA
194A
A818
A9BD
A5F8
AC97
2A5B
A666
2AFA
2544
2962
A407
285D
2993
288C
2DEC
2F7C
A93A
B169
258E
2866
2893
29B4
28A9
3715
2A35
324D
B380
2D00
B204
AAA4
A76E
2C90
AC45
30A0
AE93
AF75
27D3
B108
352E
3033
AF14
B61A
AE05
A9EB
3327
3261
B460
B54C
290E
339D
B300
38D5
B301
B4B1
AF10
32C1
312D
3055
ADFC
A2F2
B0CF
A980
3609
31AF
240E
B524
AFED
AFA7
3610
346B
B12F
B5DA
2D3A
B205
3473
3962
B439
B67A
2B9A
A9DD
ADEE
349D
30BA
B488
ACCF
325C
3666
3203
20D7
2811
B084
A68E
3337
35A2
2BB8
287D
26A9
B47D
30E6
39D7
2CD5
3150
A6F0
2ED7
AE09
3652
352C
2CC3
2DF3
3631
3A31
B346
347D
AC5B
AD06
2A46
B132
2A8E
22B8
3633
2805
B4E1
B27A
3210
30EF
3639
3170
AABE
B32D
3054
2AB2
34DD
2E10
358B
369B
B625
3120
3554
A8C4
A0E1
354D
B129
3486
B89E
377B
B424
B213
B736
AF46
389B
35B0
9AEE
B50E
B981
AAD7
398C
32A1
34DA
2BB1
BB22
287C
386F
304D
2AA9
2D35
BAF3
2C2F
2A37
B162
290B
97C3
B154
B109
B601
A8A5
2849
A4C9
25F8
2545
35CA
2E69
2E7F
A95D
AA1A
307C
27BD
2D17
2BCE
AE41
23AF
2B08
2E55
2884
A028
2B19
98B1
AAC8
24AB
A69A
A827
2D7C
AC8B
AA9E
AA48
A820
2926
2F73
A88B
B17B
B19B
24A7
2ADF
1EDD
2BFD
305F
A99B
2C32
AB73
9692
2486
2CDE
2EA1
2958
A9BB
1FE2
28D6
A3A8
ACC0
2736
ACEE
30DC
A89F
AF2F
A98E
1D98
A311
2017
A8BB
B081
B2F0
29BE
A14C
AE42
2CE3
A8DB
286B
235B
A8B1
2636
21C5
2729
3216
2ECA
25E8
2ADB
2463
AD29
18AA
3114
A994
307B
AD67
AE51
AB07
30BD
ACB3
AE43
1F1B
A6F1
A83B
AD19
2DF9
ABDB
2F09
9824
262C
A9C2
287C
28C9
2C26
2700
32DC
A554
942C
2A52
ACDC
2AC7
A0FE
A24E
A93F
2727
B002
AABC
3007
2B6D
AE12
B202
B08C
A922
2F62
A79E
9AC0
AEC2
30AC
A773
AA97
AD34
AD52
1DEF
2E66
AC16
30F2
2A48
AF69
A772
30C7
2AA6
A96B
2650
AA83
3426
296B
B1FB
2978
2E0A
AE2D
AAAD
A625
AA03
2C8B
29F1
A579
268D
A6B1
AA39
B5AA
B23B
32F6
328E
B375
2FBB
B09D
A901
318F
1FE2
B349
24A8
2893
A3DC
2C27
B58F
B5D7
AEB4
3471
2C69
AE3E
B6D5
B557
A4C6
3489
0B70
B1AA
B3F5
B51B
A095
2F75
AE96
AD26
9B2E
32FF
AF44
B672
25A1
AC27
B8A5
3456
AA54
2E57
A70A
AA7C
BB37
2123
A502
3857
2CB7
ACB8
B8A2
B452
2D13
3100
A80D
A9C6
B1AB
B323
2DA5
B4CB
2C9B
29BD
2C56
3004
AF53
A488
2EE1
27B3
B5F5
26EC
ABCA
35AA
2E86
3069
B6A9
2DC8
2E37
33B4
2AF0
1C15
2BD7
B0C6
2BB1
B4C9
ADFE
3042
2A0A
2B0C
310D
B878
ACD3
3167
3238
341D
AA82
AE0D
A44B
B2B6
34D8
31D1
2DDE
2653
AC94
2BFB
3863
33E1
31EC
AF64
B26D
2F15
346D
360F
2CDF
B770
AFB3
25C3
33E3
38BA
29ED
B331
B01C
3491
351F
38AE
AC56
B270
B017
29DB
325C
38F8
31D4
B38C
2541
2DD6
309D
3681
B0D3
B64E
3013
B016
32E4
33EA
2E3C
B355
32BB
B0BB
231B
320B
3407
3169
2A0A
A588
A7BA
A8F8
A5B4
37D3
2585
ADDB
A85A
A105
AB0D
A804
2774
AED4
B04F
2863
AC78
A793
270D
A679
A93A
0EEA
A532
B203
A52E
A4B5
ADD7
2894
2D32
B18B
A82F
1EAE
A873
AAB2
29AC
B1D0
A4A6
16F6
2A92
B18B
244F
2962
2BAA
AA34
2BAC
B02F
A2CD
AE4E
2C55
2F1C
2D80
A70F
A0DD
B021
9D7F
2C71
2C7D
2D38
25B2
B0FA
25DB
258D
AD32
2D62
2E74
AD71
2AFD
ADA7
A422
ACF0
ACD5
2D88
2C67
A990
9403
AEAA
AD82
2753
2DCB
A6F6
31AB
AA0C
AC25
AAB8
2A71
A5A1
30D9
AA78
A8D6
B06F
2D58
AB9A
AA74
AD0B
278B
260D
2D00
3071
2A1F
AE71
AAA2
2FA7
1F0D
2ECA
30A3
B2DC
AF6F
314E
9F26
2E56
2E50
AC5E
B04D
A5C7
1DF8
213A
2A00
AE5D
B070
2AA6
3100
AB34
2B2E
2AB4
28BB
2C7F
AA92
AE7D
2D0A
AB7F
AF06
AC52
AC99
AD9D
A59A
2C1E
B1AD
2410
254D
2A6C
AB2E
9FF4
AFB9
2767
A498
2D33
A80A
2161
AEFE
2EE1
22E9
2088
AF18
A99D
217D
2A18
2A56
A5CD
29DB
299B
2260
B874
AA7D
2795
A8E3
A957
AF5A
2C2E
2641
ACE8
AD04
A9A3
9FE9
2BC5
8925
A7F9
2899
AC7C
2817
24EA
11E0
B243
2EB8
A0F4
A89C
311F
217C
A7A5
9735
A9CF
A935
2D86
291D
28B8
B157
2E8C
A5BB
2D62
A4CB
ADCB
1905
3029
3020
2D28
1DD3
A614
2D46
3211
2C34
A5BB
24EC
AC51
31B4
304B
27A9
270E
A97C
A517
260F
AFBC
B0D5
2A3B
A88C
2BCB
B2E0
32CE
25A9
2203
B0AE
2D37
AD5C
340C
33E5
AE29
A8D5
A77B
3083
3216
2EB2
AFA7
AFE9
AC38
317C
31BF
2866
204D
AA4A
ABAD
B039
A8FB
AC3B
2C5F
A908
2B0C
B2A1
3165
315E
2DB1
B0B8
20CF
B08D
2FE9
33BC
A8BB
AB33
9F41
2BE1
2D58
3316
A83B
9E5F
A8D6
AC8F
2EBE
2A5B
1DD5
AD16
A8D3
ADA6
2DFC
AE91
2930
A832
20AD
B04D
A389
2B87
27D3
A48A
A0DF
B1AA
A96D
3056
1639
28E7
2787
22C8
A849
A1B9
2C1A
2998
ABA5
3325
B0C3
AC87
2A08
28FD
A7EB
2906
2ACF
AFC4
2473
94C1
A655
9D04
25EC
2593
B67E
A9B1
28E0
ABBE
A66F
AF08
3013
A869
2BBA
AF6B
281E
ADDA
1A9C
2B52
2C35
AEE5
2DD2
A5FB
294E
A80C
2AED
B231
2FF8
2CC4
2AB8
1E1A
AD48
AE56
217F
3031
27CB
9D7E
22B0
AD4D
A513
AD2A
2C4B
AED0
2FBA
2CBC
2818
24CF
AB5F
A860
26FE
206F
32E4
29FA
ABD3
AF3F
AA9B
250D
3423
3161
B067
AFFD
9F23
ACCD
3098
3363
ADA7
AB70
2A40
B062
AA56
A659
307D
A875
2E79
AE33
AF7B
2999
31DF
2AF0
2CEC
1FDA
1AF7
2C24
31C7
A09E
1AEF
27CF
3226
3292
AD65
A0A8
2DA3
AA74
30D3
2EA3
25E2
1A29
A682
B0D5
AE61
B13F
2FA7
AC35
AD31
A899
AB21
AAB9
25A2
A177
AC17
28B1
A72A
2A1A
A012
ABC3
B0D5
2365
2F6A
2F73
AE40
9E8F
A836
29D2
2F5A
2FF3
A816
210B
A87F
ACF6
AEEC
B1F0
9749
2641
A7B5
AA36
B34B
AD3F
AE7F
1879
26A9
2E4A
B198
9BC8
21E0
A5F8
B1AE
AB02
A929
2A9C
A8C8
303C
A5B1
AF0C
3248
282D
308A
A781
2199
A99F
A762
A531
2A71
3304
2CE6
B0E2
3420
B016
31C0
3342
2496
B4C7
341B
ADAE
36C3
31AA
ACE2
B39F
317B
AE14
34D8
2C83
A52C
B111
2C4B
2228
3521
2CC9
266C
28E2
28FF
2C37
3462
2A54
2E1E
1DD0
AF5E
189A
366E
2F24
2E51
A999
B647
2F6D
3533
AF24
3201
302F
B644
2C6D
2D2D
2DA2
2CE9
359E
B311
AC7E
B3AC
25D2
2AC9
34B6
ADFB
AE4B
B64F
2C39
A5DD
2B6C
B0B5
A6B7
32E3
A5EA
B0B7
3108
B48D
B188
AF36
ACE1
B2BC
35C2
A549
B457
B157
A851
B004
3456
329B
AABF
B398
B06B
AAD1
2D18
2EA7
2561
AD85
AC1D
AECE
31AD
2D11
3007
B037
AC0D
A1FC
30E4
32EB
3093
B12F
ACCC
2ECC
2F6A
3456
AA61
A4FC
268B
318B
3126
3783
ACE6
AD12
A41E
2D17
300F
32B3
90A5
AA95
AE8F
246B
3146
340C
3322
B3E8
2681
2912
30AD
375E
2F38
B07D
AD69
A50B
31A4
370C
2C58
A81A
ADF5
2AD8
3126
36CB
3074
A669
B411
2E50
2B57
3285
30A4
B181
A718
29AA
A9DD
29DD
A92C
B435
A044
AB49
2C11
AB63
2D0F
B13E
A88A
AFE7
A50B
AAF3
17CB
AF50
AC28
2DEB
A88C
308A
A91F
AC8C
1E26
3191
2531
30AA
A358
AAD5
2D5C
ADB3
2C5C
B15D
2AC5
3358
2C43
B00B
2761
9418
AA22
A9BB
A520
A926
B11D
2939
B050
AEF9
AB55
281A
B331
29F3
A8BD
B298
B26D
31A7
B44A
AFD2
2A64
AD0C
AD1B
AE3B
AC23
B4A3
2E99
2E2A
2DB4
A9A3
B17A
B109
2D17
286C
9D1B
9B5C
B624
B533
B022
A02D
A917
A4F3
B6CC
B49E
3034
B042
B2DD
3115
B4BD
B547
2A9C
A868
B2D4
3336
329A
B83D
2C55
2FF8
2F07
9D50
B5B1
B3A8
2DAB
AA44
3264
A7EF
B781
B50F
A7D3
2AEC
32A7
B0A2
B522
B538
B016
AE87
2F47
AC28
AD86
B4D7
B06D
B2BF
AD1D
34C0
3443
B6F6
24D3
B054
A79F
AD71
B027
AD8D
2D85
B015
1953
AFC0
A963
B1B5
2DE7
2824
2D75
ACD0
2D0E
B2A1
2F21
2C6D
2F48
A996
2B39
B212
A99B
A9D0
2C9B
31C6
3403
AEB8
AC20
AAAC
2A66
2586
299C
A9F8
A415

