3AC8EEF2
BC4B70AC
BC2AFBC2
3D62717A
3C39BAA1
BBA26E54
BBA51E32
3B1AAA3B
3C142917
BC1A0AD9
3C987619
3C3F76A3
3ED9C5C5
BB96E58A
BCB228DD
BB1F9485
BCBFAF42
BA902DE0
3BD29995
3C089C1B
3B7850DF
3AB73D19
BBD0DCFD
BC188095
BC96BFCB
3BB89D6B
3DB4B48D
3BFA93AF
3C7FD1DD
3C353932
BA488A48
BA77B9E0
3C82D59D
BB26FC59
BB21BE2B
39D349BF
BD3A732E
3CE0E304
3B93B7D8
BB1D0636
BB98FE69
3CA6EB92
3B8FB00C
38FBA882
B998915C
BC221640
B796FEB5
BB64430B
BC3E6602
BA84406C
BC51DCD7
BB37D417
3BB32485
BC8913A5
BC021294
3D3E5C92
BAE51D26
BB9784EC
3B9270B0
3C7A54C5
39FDC161
3C138583
3C699A63
3CA00E28
BB185F07
3BD2CBEA
BB8E4756
3BB6848C
BB3C169C
3BF3BA77
3AFD9FD3
BECAD6CB
BA72BECF
3BB5B2D5
3B08509C
BC090D5A
3C47E282
BACF398F
3D681CB4
39A06EA0
BCDC182F
3BDEEBB3
3AA222D5
BCCFA483
3BD4B274
3B20D34A
3BC0F020
BB567FD4
3B90470B
3AF62739
BBD8C2A4
3C4AAFBC
BBA95853
B749539C
BBE85B9F
3AC62E4D
BD05C24C
BC895D0B
BC18E970
BB8AD688
3BF88334
3DC79C41
3CCD9620
BC2F1023
BC2CC921
3C2CD185
BA11C087
BAACE24C
3B254824
3B048388
BD0AF923
BCC73472
3CE1BD1F
3F008616
3BADFF82
BC050DF1
3C75B1C8
BD939B89
3BEAE9EE
BC97268D
BC89D063
BB726AEC
BB50DCFD
BB30F27C
BC2B606B
3B37A1C2
BB9717DF
3D414D72
BB5A4CE8
BC041EDE
3C5F9BDC
BC5BF8BA
3A800EAE
BCD931CA
BC48C932
BC365A9B
BC5D9C28
BD2BA6AD
3CE02214
BA3F5D79
3CF9F234
3CEC6BCF
3C9ED9E0
3C0B7A1C
3AA37260
BBC6F7A1
BBE0D23D
BC3FCEB8
3CE07810
BB2B92C0
B8E8C8AC
3CBF401C
BC894E5D
3C5DCE7D
3C912BA1
BC11A32B
BCD70C56
BC5A0DFE
BC0305D9
BD3C115E
3BA17B0F
BC36F9FD
3CB5EB74
3C375EA6
3D03C18B
B827C5AC
3CB4BF90
BC17BB73
3B9AED57
3BC72192
3C0AB0C9
3C465C70
3D2D3C79
3C2F709B
3BC73ABD
3BC3979A
3B2B3EDE
BD071F79
BC073797
BEB14489
BC3F1E8E
BC6C4E72
BBDFEFBF
B961719F
BD1FF1D8
BC8B9BAA
3C86E7E6
3C93DFB1
3C3291B8
BD3D8E00
3D04DEC2
BB2DFF82
3B88509C
BC29C561
BC816484
3CA0BE51
3C007FED
BB3FA094
3D0535CA
B9ED80A1
3BBA0621
BCC382A1
BE0C0DF6
3C16AF04
3A0F648C
3DECACD2
BC36E0D2
3B27503C
BC7B71FC
3CD37197
3C235504
BD6EAE9F
BDBB19E7
BB4CAB3F
3EA1B1D9
BC8EBEE0
3D89E1B1
BDC0D456
3E5508F6
BCB96AF0
3C1E94AB
3C52DCB1
BC73D3A2
BAB24207
BB4111AE
BD0E0221
BC0E368F
BAF7FCFC
3D11600F
BB265493
BA05F4A1
BCA96F65
3CF2D3C8
BC660807
3D3B1D0D
3C4AEA74
BBBE1EB4
BBEA7CE1
3CDE7642
BD0080FA
BAAF8162
B97BA882
3D677D52
3CB4C3C2
BD6238DA
BB0B007A
3C703D14
3C2A7158
3C54994A
3BE618CE
3CCDDF87
3C2E429E
3C9AEB3E
BB315726
3CF1A198
3C68576D
BB83BA34
3DD542A2
3C9D6F11
3C0E1D65
BD88E369
3CD1E109
BCF00ABF
BDCCEFED
BBF37FBF
3CF969E4
BBE25C81
BCC4E2F3
BC8C5650
BA04A516
3BC81D3B
BB0DB057
BC048BEB
3DD42891
BC81EEEE
3B46B485
BC13EE5F
BBACEAAF
BD0474DA
BACF9E38
3CBA55D2
BC0433D7
3C41333C
BB5AB192
3BB0EA18
BD41CA3A
3BB9CB68
BBA7A41E
3C9029AE
3C6F2841
3CA324C8
BD11FA33
3A373D19
BBAE9681
3AC32A8D
BBD4D402
BC9830E4
BBF2AE08
3D48E044
3D1E41D5
3C5F8F47
BC841462
3BFD32C6
3CD084E8
BE1BD7F5
BBBE6A33
3C17C808
3CEA7696
BC045133
3CF41073
3BDCF462
3CF1001D
3E518EFC
3C1652BD
BC1DBA91
3F18E9F7
3B7765FE
3DBA3444
3D36CEFF
BD170E6F
BC44B902
3B87980F
3D3DD441
3B156C0D
3C05C24C
BB1D27C4
BBA7A41E
3C218373
3B7A0514
BBE0D23D
3CFF327B
BBA63305
3C663A5C
BDBF77AF
BBD79D0A
3B4857F3
3C223C00
3BC1F42C
3C134ACB
BC803255
BD1BBF0E
BC3B517A
3C05D745
BE05A3E4
BCA8DA7F
BA8A47ED
3C25B531
BB045133
3C0FB86F
3C3677F7
BA5E8F6D
BCCC33B5
BD1245B3
3BF50A03
3C2CFB76
BC49539C
BCD62BF1
3B010A57
BD3446FA
BD4DF373
3C8CFE15
BDD7DE0D
BD0F12C2
3C3CCF29
3CD7214F
3D448388
3C6AA6D2
3C35D031
3C369553
BBDB37CA
BC3838C1
BCE0B0AF
3CADB61C
BAC88A48
3CAD1AEB
3BC57E24
3A3C382A
BC4B6849
3B762739
3D52F7F5
BAF12C28
3C447E4A
3B21CEF2
BCEC58EF
BC912989
BC1A133C
BD6AA3AD
3C26223E
BBF61ED6
BCA5C3DF
BB2E1049
3C86FCDF
BBCDB7AE
3C2C81D4
BCFE49B2
BC6ABFFD
3C29B068
BC3506DD
BB340703
3D1CDF6A
3D228FE2
BBFAA476
3988509C
BD584E40
BDAF8F04
BC241A26
3CD3DA73
BD286F8B
BB298AA8
3CA5DAF0
3E4A43FE
BC91947D
3BD7CF5F
3CD72FFD
3C50A676
BC0448CF
3F098384
3B4B5BB4
3D8E7DDD
BC5B1A6D
BD65C3DF
3C70BAE9
BBB90A78
BC9A60D4
BC3D5561
BB04D76B
3BA979E1
BC56CF85
3C467DFE
3B0B1141
3D70DC77
3DAB13E0
3BFA2F06
3BC15D2D
BC24FCA4
3BF21709
3C97A461
BBAF1CB9
3D6E83A1
BCDF84CB
3BCC6823
3CC8E044
3B5F7A4E
BBBFB15B
BC2E3E6C
BD2107B8
39F45176
BB8D002E
3C129ED4
BC494B38
BB67BC3C
BD1ADEA9
3B81C2E3
BC214CEC
BD2AAB04
BCACB210
3D904CCF
BD9240FB
3C1F2FDC
3BAAB8A6
3D0E7579
BBECD078
BD762307
3C5362E9
3BEABFFD
3C678184
BCEFA3FD
BDA45565
BC1784EC
3BFCF80E
BC5FC5CE
3C045133
3B378034
3D2EA423
B9E73605
3C42CE46
3C8691EA
BADC11E4
3B425072
3B7722E2
BD89E343
3CF1172F
3E163C32
3D7EFAE8
BC8BD44A
BD1F2885
3C2187A5
3CB93682
BC8A2878
BC6F5665
BD00713F
BC1EFD87
3CC16DF4
BC9F1498
BCCEAF25
3B8AB4FA
3B613F4B
3C324639
BCC6887B
3BA1E81D
BCF8EE28
BD13910C
BBC7A7CA
BAAA21A7
BBB5DCC6
3D54FDF4
3E867925
B950AAA8
3C73732A
3B7BEB9E
BC180B24
BBE7B3D9
BC084838
3CFD4174
3DD0EA18
3C2708EE
3BFDB8FE
3EC4B685
3C7EAC43
BDA59AFA
3B892253
BB2222D5
3C057AFF
3C768BE3
B8F12C28
BBD080B6
BB305B7D
BC031AD2
BC9FD9BA
BBB178B3
BB6A4A8C
3DEFD6D8
3C98B934
3D1804DA
BC13C46E
3D841CC5
3BE93E1D
BB695FAB
BB5A7F3D
3BFE6927
3B8A7A42
3D2351DF
3D52146A
3D037718
3B4564F9
3D8FDC9C
BB272EAE
BBE3150E
BAC692F7
3B44EF89
3B2B4FA5
BBD905C0
BA4A1CEF
BCEAD4F6
3C12146A
3B944674
3CFB139D
BD01C0CA
3C5E15CA
3C839ABF
3C4C89B1
3D104923
BB807358
3C5B402D
3A0E581D
3CB64E05
BC5199BB
BD04F5D3
BC98B2EA
3C8025C0
BC045DC8
3B8E820E
BC298AA8
BC4A3E7D
3B446951
BB795D4F
3D4AEA74
BBE0F3CB
B8B88CA4
BABFE3B0
BABC59B8
BA24A05E
3B544567
BB820E63
3AD0678C
BD5F4906
B9F66A55
3A1C3CE2
3D0C319C
3C587F88
3BAB7132
3C6043A2
3A6410B6
3BF2495E
BC29F7B6
BC87D912
3BE5A35D
BA13964A
3BA3F898
3B6EF1BB
3BBDEC5F
3C7B6135
3CF2A7BD
38F55DE6
3C0665E0
3DBBDF8F
BE115BDD
BD983C6D
BBBB98C8
3D0CB3A2
39AD03DA
BB4E4EAD
BD09D389
BAA37260
BA1D8C6D
BD5B078E
3C2F1CB9
BC067275
3EB7A3BA
BAB3D4AE
BCA9AA1D
BC42BD7F
BCBE8DDA
3B8CB4AF
BC021F2A
BC6BB774
3C33F63C
3C34CC25
3B04E832
BCB951C6
BCB97BB7
3B756EAD
BE950B52
3C65EEDD
3CB22F27
BBC03FF7
BAC32A8D
BB08D6D4
3D1E2585
BB241A26
3C5E19FC
3C88094E
BDC2089E
3CDC8DA0
B953CFF6
BA2E1049
BCC156E2
3C330729
BBB4C7F3
3B88E79B
BC239820
BB591EEB
BB5716D3
BBDA6613
BC762F9D
3BA26E54
BCC156E2
BA8B545C
3B8EC52A
BC99AE92
3BFC3F81
BD1C7EF1
BC8BFC22
3CB1C64C
BC10470B
3A904F6E
BA449BA6
3C3545C8
3CF75FB3
3C6831AD
BAC2A455
3B40BDCB
BC1E236C
3B86F8AD
BB618266
BCD86EC1
3C55F56A
3E1716D3
BB9EB207
BB8DD1E5
BA7F10ED
BC84FF43
B9EC7432
BAFE6927
3D9486F0
3A13964A
BCA95A6C
3BAADA34
3ACB6C7A
3D0CD0FF
BBAE2110
BB50EDC4
3CB8066C
BA92EE85
3C1E3865
BC381733
BBE75FF6
BAFCB4F2
3C837B4A
BD0470A8
BC992EA5
BC37E4DE
3D8100E7
3D6FD86B
3C47E282
3A8AEFB3
3D3BBF94
BE2F965B
3CA8C79F
BBA14057
BD9CC8DE
BA48CD64
BB02F0E1
BD733CA3
BB330B5B
BC16BB99
BDB4A2BA
3D73D07D
3C89D8C7
3E9A4830
BC81C0CA
BB206EA0
3CB7B070
BD6E429E
3C9B994E
BCAFA509
BD186120
3BD080B6
3B1E3433
3BCB1034
BBB8CFC0
3C1FF4FD
BBC0A4A0
BA13964A
3D09F83C
3CB9B670
BC45FBF8
3D6C5D20
3B2BA387
BD0461FA
BB138583
3C2682B6
3C31422D
BC0F861A
BC4D423E
BC1235F8
3C483665
BD304AB6
3D14B381
3CA67408
BADBAD3A
BADFBD6A
3CC2FE82
BB31897A
BCD8D584
3C86F04A
3CEBA6AD
BC6DAA93
BCCF1C32
BD6A9B4A
BB67DDCA
BC64FFC9
BB041EDE
3CAC0618
BC6A5F85
3E611E00
BB5013A9
3C990082
BB1F5169
BC9B3D08
3C88DF37
3BA59C06
BC485C25
3BA9DE8B
BA950764
3C8A5482
BCF67B1C
BCB4A01B
BBFCD680
3BB074A7
BB37E4DE
3C3688BE
3C5F82B2
BD833D6C
3BC20D56
3DFD65A1
BA766A55
3B11C087
3B14E5D6
BBCCD530
BD1A1123
3D3EA3DF
3C5C1A48
BD09F0E5
BBA65493
BDE6BCE8
3C7F1D82
BCD9C8C9
3C5D095B
3B55B680
BC1C9928
3D1147F1
BC6C56D6
3D37AF64
3CC3265B
BAFC71D6
BBAAA7DF
3C90257D
BD9F3C71
BD10AFE6
BB3E7297
BC52F1AA
BCD9B802
3B07EBF2
BCD4AC2A
BB856606
BCD1287C
BDC82ADC
3D19A522
BC5E7A74
3F7374EF
3BF8DF7A
BE2FF328
3BA393EE
BD00B45B
BC0AC190
3BEDB2F6
BC595571
3CA2C237
BB0EFFE3
3B2925FF
3E00FB22
BAEABFFD
BA18915C
3DA39D5E
3C5AAD60
BD41BEB2
BCB4ACB0
BD465F96
3B99A62F
BD9359FF
BC26B50B
BBCC78EA
BC1F3C71
3DFE8145
BDC619DB
BBAA2A0B
BD1641F6
3C0AEB81
3C0F9B13
3C10CD42
3C46045C
3B70E90C
BBCBC05D
3C7765FE
BA93D966
BBAA0019
BD0CB296
3DA47C31
3CDDD096
3DA205FF
3CE89870
BC879C41
BD2DACAC
BBA558EA
BCA65F0F
3C563023
BC2A1D75
BBAF4F0E
3C55B680
3CB3AABD
3C4AEA74
BC395A29
BC09CA19
3C9F6230
3AFB6567
BBD26FA4
39FA9C13
3B832B99
3DBD145E
3BB58080
390FA7A8
3B6075F7
3B02BE8C
3D34A340
3C83A754
3DA49B20
3B51A650
3DF1AB08
BCCC4695
BB414403
3D3126E9
3D6B239A
BC138583
3C5DE7A7
39F12C28
3B5AB192
3AB178B3
3C96AAD2
BC37B6BB
3C268F4B
3C89BD84
3D416484
BBF4C6E7
BD2A77A3
BDCD7519
BC314EC2
3B38F14E
BD61943A
BE5DE658
BDB3F9E8
3C623AF3
BD8F6B5D
3B470868
3A52806B
BDFAFD97
B9B13598
BD318B93
BD84E593
3C386B16
BC6AAB04
3F279842
3C097204
3D8AA9F8
3CC89B0F
3C83D790
BC80F55E
3C2B1D50
3CCC7F35
BC168944
B9E496EE
3AF47304
BD161C37
3C61C151
3A263305
3D0461FA
BE2A044B
BCFDE0D6
3CBC254A
3CFD88C2
3BB7DC7B
3CAB3248
3C5B2F66
BD830121
3C71843C
BD19DDC2
3D5D6E05
BBDD3FE2
BBC7863C
3D669DF9
BD16EBD5
3CAA4FCA
BC6D959A
BBC45027
BBFFA7EB
BBD7D7C3
3D67F3CF
3D0A3E7D
3CFFB8B2
BD3FAA04
3C596207
BDCA4B12
3D71EE24
3C5BFCEB
BBDCA07F
BCC914B1
3C2A5C5F
BD9A20DE
BA3AE89F
BC8DB489
3CB6A61A
BCE807BC
BCE9E1B1
BAB417CA
3B845133
3C8A43BB
3C0D2A20
3C828805
BCE86E7E
3C12A305
3DBD3CBC
BC854CDB
BC008C82
3B963DC5
BB5013A9
3D87503C
BD2F1887
BC9E5C0C
BD505C03
3BBE48A6
3D88051D
3B0D1959
3D4561D4
BDAF91A3
3C42CE46
B9302928
BB874C90
3D5D67BA
3D032DB2
3D2DD484
3C824D4D
BB7FFBCE
3C79C62A
BD2249A1
3C80B88D
BDA0E51D
BD032CA5
3C03FD50
3B6A6C1A
BC44A409

