2FFC
AA72
9D28
2B98
2C0A
26A6
AC16
A7F4
9E7C
2D82
2EBA
ACDB
9ADB
A735
A902
2C54
A82B
2C19
9E2C
88C9
A57E
2AD1
3098
2F7F
AFCB
AE68
2177
AC0D
2587
ABA9
A944
2927
0C57
A86B
24E2
ABFD
2759
29DA
A917
2A59
AB2B
A7D2
1C8A
2756
A847
29AB
2B87
1C69
2745
289C
A651
303E
246F
AB21
ABBC
A915
2D19
A847
2698
2D77
9EF5
A9A5
95AA
99E5
27BD
99E9
A15C
AD35
28E4
A9C5
23B4
2862
A61A
AC87
A25F
ACB8
AB20
28D1
3048
30D6
3423
ABB4
2994
2E09
2819
3231
2D40
2731
A8EB
A30D
28A9
295D
2B9C
2A29
254E
95AD
AA54
A496
2E6E
A8DA
AB5A
A81C
2436
A999
B1D7
AFAC
A8C1
B091
A0EE
AF40
B3C7
A920
2D71
2F10
2E6F
237E
A630
305C
2D8F
2BD3
A395
A8B7
3006
2451
A70E
9FCE
246C
25D7
30E7
2144
2EBF
AD1A
A76C
2A57
A50D
A887
A843
2CA7
1D6A
ACCE
B1AD
27DF
2C52
AD59
B053
AD1D
1C0B
2549
2C8B
23F6
29A8
26B7
2951
A921
B2AB
B024
AC01
AA36
AAC4
B014
B288
A839
1D24
27D5
A855
26BE
3062
2C7F
2224
2958
2C21
2DC9
3002
2E60
298D
9FCE
2A6A
2059
2D01
AAE4
A8BB
2963
2CAC
2F53
2952
A2D4
A0A3
AC83
298B
30ED
3036
AC53
AD24
AAF2
2975
263C
20C6
AC46
AC55
A8CC
1E0E
29E6
A4FA
AF9F
AEF1
2833
9BD6
248A
A9CE
B402
B301
B1DF
AC84
A537
B0CA
B402
B473
B47A
AA90
A90C
A676
A252
AFB2
A280
2840
A4FF
A8C7
1FB1
A4DA
9FEE
A3F5
A779
2DF1
A061
AA94
A7EE
2CC2
9CA7
2B14
10E8
2632
2519
9F95
2686
9B91
A17A
28AC
A7A5
1C27
A0C7
28AD
312D
2D0A
AFFC
B13F
B13C
3028
3064
2A91
A8D0
B2CF
A825
A94A
3072
AD33
AF24
B276
A6C3
2955
A2A6
251C
AC4A
25E4
2926
2D9F
2764
A9C5
28FF
A686
1A64
29F3
2917
21C4
A66D
26F3
27A1
2762
ABED
A456
A72F
A620
A97A
A428
A298
9EC2
A1ED
9C8F
223B
A7B2
247A
2705
AF7C
A63E
2921
A813
A330
AD82
9DD8
29FB
2905
A4EB
A3B3
AAA4
AC24
AD61
2119
1EC0
A825
A98B
A3EF
AD23
25F6
2D56
228E
A9DD
ADDD
A403
2BA3
2C47
98C8
AC27
9C33
2550
2B96
213B
2283
9D83
2B38
9A03
24B7
2B52
2C98
2ED3
A360
20DA
2CC1
241F
2CC9
A83D
A900
AA6E
10B2
1CFA
A9B4
2584
AA26
A1E4
227B
2179
A195
227C
A8E4
262E
22E2
A876
AA0A
2079
2BAE
9C82
AB9B
A2AE
207B
25B7
2B64
96EA
1DE2
AA26
2CA7
2DE8
2984
9DC0
A1AB
2FE7
2C6B
252E
2B97
267C
2F8C
2C1B
276A
28C0
283A
3063
1AF0
2FAD
2E8F
9075
AA3B
2E7C
228D
25B5
3044
2DD6
AC3B
A900
A86C
2C17
2F67
AE46
AEA9
B057
A6E8
2AB4
243D
A89C
AF84
A82B
226A
2BE9
A998
A8E7
2077
A7B8
AA1C
9DAE
25D0
16F2
A23D
A008
A89C
AEE1
2C12
2EAF
3079
2F4D
2B49
2F6F
A4A7
28D3
2DDA
2546
2738
24CE
258A
0CB0
290C
A179
A844
AE44
B0AD
A4C5
2610
2214
AA07
9D8C
9CC0
A3B8
AC1E
AB68
A86E
ABFA
283B
A7EC
A83C
ACA8
AB84
9D06
23B0
1CC1
2846
1F41
243E
26B1
94D7
A0C2
A1AA
2781
A9AB
AB37
2C46
2247
A985
A1EC
9FF5
2B90
3107
2B49
317C
A214
AA0E
2876
2254
2FBE
28EC
AADA
A4A7
2BD6
2CF0
ABF3
B112
B054
9461
2308
A751
ADD9
9C0D
AE88
AFEC
AA07
AAE0
2418
2CAD
A029
A87E
2C62
2931
2CE4
2DFE
9E1B
AC2F
AA66
A8F8
24A6
2CA2
9B75
21E5
2BFE
208C
1E80
278A
A57B
A25B
2760
A647
A716
1C53
A80A
9972
A5CA
A8F4
A96E
1B87
A9D6
2E1B
2CF8
2ABC
231A
AE16
10DC
A1E3
A157
AA17
9CD0
28C6
A749
AA36
ACA8
29FB
21EA
AD37
A989
2C80
2A86
2BB5
20EE
29FF
242C
277E
2357
A198
2838
A856
A2AC
2364
2A9A
18BF
29DE
A7E6
26B4
2CEA
A7D4
2D2E
2C5C
2AB1
A862
A9D5
2C73
A89D
281E
971E
1FD6
2AD8
2AB1
2218
A3D1
A04A
248D
28B1
2AD1
A5C7
10D7
AD21
A91E
2A9E
2839
2F35
1CBE
A48D
A3A6
26FA
A156
A618
220F
1DBF
9879
A80D
2920
2659
A2A7
9D1F
A556
2751
2661
287B
24F9
A541
921F
B0AC
B0F8
2C63
2D8C
AD8D
B030
ACAE
2E3C
2A6E
A6F7
ABF2
A97C
2649
2697
2C2E
2D86
2464
A9B9
9DBA
26C3
2B39
9E28
AB97
A98A
2479
29BA
A960
B01D
AFD1
2AF9
294F
AE02
AFD8
AEF3
ADD2
AC38
270E
A8A0
22D8
B12E
A9FA
A9FA
2411
20A6
AC41
2853
1F72
2B9B
2DAD
3031
312D
2CB6
290E
2B64
2D5B
2E74
2C49
A779
A4FE
A4AD
1CCD
218D
ACB3
A6E8
A9B1
2120
AA91
AAB8
AE8D
2824
2842
276D
ACD0
A81F
1F30
2623
AAE7
AA0D
275C
A44F
A861
2B40
2D4F
2630
AA58
AB3F
26BB
2C1F
24C9
9A2F
2849
A834
A58E
A885
AA5A
1D68
AB9B
A318
A0D1
AB4C
AA86
AE48
B00A
B113
9F56
20FA
A594
AAAF
A3A8
27BA
1CBD
24FE
A4AF
2B8B
9FB6
A513
A4E9
2D2F
3052
A2E0
AFF0
AC62
287E
16EA
06D1
A495
9008
A27D
A788
2D27
9F55
A663
9EAE
8AF2
9E82
2851
2692
25E3
24BC
278F
23DD
A284
9EEB
A6BE
23B7
A4C3
A865
2102
291E
AD48
ADC4
B00D
B135
AB88
A631
B21E
B16C
AC63
2BB3
2CB4
A77D
B001
B01D
18F7
2980
312C
AAEB
A8A2
1C9D
940A
318F
2FEF
9997
A6E3
25D0
2B82
2EF8
293E
2AA8
ADE7
25E2
2AA0
2AB5
2548
AB4D
27BF
282C
AC89
2758
A48A
24EB
2491
A443
A25A
AA7B
2496
1D69
240D
A576
A538
A7B1
AC0E
2972
28E6
2C2B
1E38
AB31
AA5D
2AC2
1C5C
A348
ABE3
2632
2A3E
A470
A8C2
AA1F
A47E
A242
1E3C
AA4D
2CF6
A795
9EC1
A870
25DB
2529
A8AF
A37C
25BE
A91F
A847
25C1
2950
A831
2843
2C19
9D3E
A566
278B
A074
A84E
2847
A220
15B9
AABF
1983
A7B2
A6DB
AF0A
A991
2FE8
302D
2EF0
ACD1
AA04
AA61
2AD7
2C89
AFB6
9923
AC0F
A4A5
2B2E
2568
245D
26AE
2452
2819
26A4
2F48
28FC
A1DE
222F
A749
ABBA
B00C
B4CC
B3A8
A9BD
2BEC
A6B8
AF11
AEEE
AE4A
A8C0
273B
AC29
A936
26E6
29A8
27B2
9EFB
A716
A920
245B
26C5
260C
2BFA
146A
AA1E
2438
2D4E
2DDB
AB24
AF17
AA97
2B0F
3216
A557
251D
AEA0
9CAA
21E3
2539
2828
AE94
AC43
AE0C
A804
A8BC
A8CF
A806
2245
272A
2DF0
2C7B
2BD2
2858
2C6E
2A56
23E1
2A00
2A5B
2992
A146
286C
A8AC
27C1
B028
B1D9
ACA6
AB07
2774
AF14
AAA2
A308
2C2C
A23C
A831
AB76
B013
B075
B0EE
A8D7
28EC
28A1
AC87
AB7B
291C
262F
2DB7
2C1F
9F53
AC4A
2637
28D6
A2B1
29B4
ACF6
A88E
2729
2E87
9C8A
2661
2826
1BC1
A5FC
AD7F
A0B4
2C40
257D
A86F
A48C
A7E9
248F
246C
AD86
A589
B070
ACD9
AD80
AE9F
0EC0
2826
A4CD
AECC
ADE7
AC7B
A8D5
9CC9
1F1A
2B0D
2526
A82E
A60D
2961
2473
154B
AB4E
ADE9
A883
24D2
1E4F
A92A
2B34
ACB2
A2DB
AA57
A302
9D6F
225F
1749
9CC7
A498
2F3D
3040
31AA
32D8
263C
2ABD
2E1F
2BAC
2462
AE51
AB11
9896
A4B1
A75C
B15D
ADB5
A862
AE12
AE42
B07C
B2E2
B06C
B1A7
B0C7
A7B8
23A1
ACA9
2B50
2274
26D2
A9E7
9B8B
2A2C
238D
28F5
A68D
24F3
29DE
A490
A403
9F70
2975
A33E
27B6
A4C8
1C05
16D0
2382
29F0
2F3C
319D
2FB8
2DEC
1D20
1BDC
25AB
2EB2
2B38
ACD2
AC56
A630
A8E5
AE6A
ACE5
AB6F
AF51
B091
B019
AF15
28A3
21AE
9FD4
A096
27FD
AC24
A8BE
AF84
9C1C
A0C8
282F
A510
A488
2A2B
1EF6
2B02
248B
A5C9
2AB0
9408
A5E1
A7B8
AC2A
94B6
A1C6
1A4E
22CF
15B6
9DEA
2831
2867
1C91
261E
A768
A34F
A7DC
2132
A0C4
2360
A450
A9CB
297F
9BBB
A8FF
A5A9
2B29
2804
A73B
1F62
A534
A4AF
A891
2592
28D5
A159
9F81
2D07
27EF
2C2A
2B44
2459
AD20
A65D
A799
2847
A6E8
A3FE
AD46
A5D7
A697
2A60
2500
2981
AAEC
A24D
28BF
2C6F
2068
28D3
A8C7
3062
2F49
2D1B
28B9
1CA6
A7B7
2CE2
2B17
29AD
2830
AE62
AC27
A9EE
2D35
1DDF
AB2E
AA45
29AF
274E
244D
2667
2F2B
2F59
AAEF
A83D
2756
2EB1
2FBC
29A9
AC15
2BBD
3029
2E50
3166
273D
3072
2E35
AA57
2D6B
2ECE
27C1
2CAF
AC52
A7CD
2272
A91A
ACBF
AC82
AB34
120E
A9BB
A240
A7E9
212F
9CC6
2497
2A2E
0AC0
A4DC
A57F
A7AF
A99D
A0F6
A441
A844
2814
A29E
AA4E
A168
22A2
235D
20F9
2009
25D5
2568
26F0
28A1
A4FF
26F7
287F
A8B2
288F
A6C8
2513
253C
A4AF
A838
A332
22EF
A568
A524
2768
A641
A05C
23DB
A471
A7E6
2A07
2AC9
A727
29A8
275C
A95B
A174
24A1
A0EF
249D
26E6
265E
A5EF
2026
A619
A678
A468
A713
24A7
142A
A2BE
13B3
21F1
2C07
A5E5
28A5
2723
A6BE
27F3
263E
29BB
A04A
ACDA
ABE8
29A8
2AAF
A015
A8D8
29E4
A604
A7C4
AF64
A49E
26FB
ACF5
2023
AC53
25D1
2038
252E
2228
A662
2567
2511
AC34
A416
2467
A401
2986
A23E
A40D
A8A8
A3F0
2808
9DFA
20B6
9AE2
1590
A811
A968
A953
1B71
94BC
2774
295E
20F2
A9AE
A244
1CE3
20E9
25D6
2857
2523
A803
AAFB
A5CD
9C97
2800
A8F6
9E6A
A043
28E4
A00B
A820
A636
2701
AA04
A010
2270
2319
2181
A0DB
24D3
2C15
A0A8
250D
2614
A85E
A43E
A81B
A81B
A5A4
2186
A923
A6DB
2A5C
A862
206E
A59E
0E6C
8F03
2897
9A37
A0E2
2329
A97D
2857
A8A8
1EF4
2C44
2793
A4F3
2841
A8B8
A390
A901
81B4
A261
1CCD
A6B7
A761
28CC
A7F5
173A
A734
A7EB
24EF
A795
A35A
24D4
9EFD
2B7E
9D4D
29CD
A3D5
A3A9
2A5F
2462
A9D6
A373
A52F
A6A2
A8B9
A35F
224E
28E4
29A6
A233
1FDE
1829
A89D
246F
13C4
253E
2517
AA78
1AFA
98F0
ABA0
A923
A8D7
2161
244A
A6D4
28AE
A63A
2ADB
A16A
2837
2334
A8C2
28AE
A600
25E2
9D5C
A56F
A4EF
A5F4
A8B7
A952
27DF
90D3
A872
28FE
280B
16A1
2559
9652
AB0A
9C65
1DAD
26BB
2B61
A2F7
2C28
A68A
A60B
2415
26DA
292D
A85B
26CD
29B1
9815
2044
ACEA
A673
9575
9B47
210B
984C
24F5
9DF7
10E0
A4EC
2295
A982
A89D
2039
A4C3
2358
214F
99CC
103C
A205
A105
A360
AB1A
20C3
A02A
AD69
AB1B
A045
A6C2
26F9
A53E
9BB4
28AC
1092
A8C7
2A76
A6B6
A80F
22DE
233E
9879
28C0
A5EB
1A73
A115
9D24
176A
20C8
A6EA
A802
2295
1A68
1A68
2691
A743
2480
9FC2
951D
2383
26D6
A178
98F7
A0C0
2428
A411
2854
20DE
1FD3
A59D
215E
2026
A71C
9CE1
26BF
9ED0
A1F3
9814
2830
A639
A587
A863
A73A
2596
9DAF
A1BE
9D7B
24DE
2002
A776
28A3
19A2
A11B
AA6F
A604
2915
9DDB
1DE1
A2BB
2144
2566
1EE8
29A0
29DB
27BD
9AA9
20E9
257E
2773
207C
2001
2058
2882
1803
2A57
1E83
1E37
2636
1CBC
A959
23DE
A2C7
9E6D
A1E6
A26A
2759
A57D
1155
271D
A23A
2486
A872
A823
20D3
283B
2437
24F2
1823
1FDC
27BF
2AA2
1F97
24E3
A865
246F
A58E
A4A2
293B
838A
22D7
2257
2362
1B19
AA9B
2582
9FD3
A692
9E3D
A190
A65D
A5B9
A138
2611
A2E3
27AD
2907
A041
A5E5
1C74
A11A
2482
A78F
ACAE
2498
1A82
1CEC
2801
AA34
27F4
25BC
29BA
A963
A584
9E4D
27EE
913C
A8B5
933E
28E8
288C
28BE
254B
A077
A311
29BF
A6BB
2271
19A1
0D18
263A
2806
18FF
2891
9828
26D4
274F
24B5
ABB5
A94B
2420
ABBF
9B95
25CB
A8E4
241D
2565
20C8
A597
19CD
95A1
264C
A268
2669
28C2
20C6
AC1C
AA56
A60B
A388
1E75
9F76
13AF
2881
22E1
167F
1D46
25E9
2380
A574
A810
275E
A993
253C
252E
286B
241B
A520
A7D0
A7FF
188F
2BFA
27F7
2B48
2C60
A96B
2756
9F2E
24AC
1D3B
A81F
25CE
2661
25A2
2210
9C61
1F6B
26E4
1FF5
9D97
1D3E
A97E
299C
A719
A75F
28E2
A748
1D4A
1D71
A48A
1FA9
256C
26FB
1980
9DB5
A889
A402
A4D8
A290
1CA3
A0CA
218F
A364
2A7F
285C
0EDD
21E2
20AC
A53A
A55C
AA23
2B47
A5DA
A878
9E85
2964
A375
0D4B
A42B
A9F1
A93F
27F3
AAC9
1DC6
A4ED
ACCA
2A6D
2615
1E83
A46F
A757
9D65
A2D5
98E2
A8B3
AB44
2930
202D
24EE
2352
A9D9
A82B
2522
2068
2935
297B
9E80
A843
9C2E
A4A1
239C
2561
9ED0
28E0
A362
A811
A5AD
2881
1AAF
A554
243C
2872
20FD
A877
2716
25A8
2B5D
A8E4
2085
0C75
92CF
A306
A891
2287
A471
A190
A158
A4F5
2B7D
28C4
A516
251A
9B7B
A351
24E4
A632
23AA
A3B7
21D5
A1FE
A92D
A416
1B51
A68A
9EE8
90CB
24CB
2845
2780
A80A
267A
284C
22A7
2954
2494
2AA7
281C
93AB
2515
2306
2262
2DE7
9BED
A93F
2455
A9AB
2774
29C8
A184
A450
A638
1A0B
2187
24D5
9571
9E1A
28D3
2808
AB1E
2824
9C74
2D57
8864
AAA8
106A
9E82
2C50
0A7D
0E9A
258E
2601
A9AE
2170
A22E
A9B4
9DED
2A87
2604
A557
295A
A4C0
1705
AA74
9899
2264
215F
A5AA
2231
2A5A
A3A0
A7F5
1AF7
1E26
2727
2453
26FD
A6F3
9E8B
A428
2938
013F
284D
18AA
2732
26BA
A649
2626
24FD
A149
2570
288C
A05B
A942
282A
A0DB
2725
20BA
20FA
202D
A57E
A96C
A4C0
11B2
21EB
26FA
1F19
1CD3
A050
9D21
AABB
A8BE
A411
A108
A9C3
9E33
271C
2AA7
AA59
A3E6
293A
A602
A277
A532
9CF5
A24C
282E
A9EC
AAE1
2850
0DAF
A538
2874
AD2F
ADAA
06D1
18F1
1F1B
AC53
AB18
AA32
A46E
24A5
A903
ACD9
1D61
12F4
2909
A946
A17D
A0D9
1FAC
20D5
2B4D
8C8E
A929
A2CA
AA14
A30B
9FC0
2210
25A2
228C
A9FE
A3E6
A631
9DBC
96F7
229D
291D
1F2A
2895
99F6
2082
29EF
1DF8
A68F
2489
2255
244A
26B9
AB9D
18F4
9972
2518
9099
234F
16A5
AB0F
2647
A8AE
A06A
2835
1F82
9FC9
A5C7
A00D
A895
A425
2B06
290A
A4D6
9946
2423
24EE
9F23
2060
26CE
212A
1CCB
2989
A98D
9ECE
A456
A9AD
1A3F
A5D4
A664
1EAF
0EA7
A86C
281D
A4D5
9D33
20AE
A758
294A
A85E
A307
2971
2325
229A
A544
281B
27A0
2279
25FD
07EE
1865
AB36
AA35
A3B2
A0D5
AC84
20BD
203A
1C46
A503
AA1E
23DE
2884
28DB
228E
2C61
A287
A73F
2084
26C3
2636
2968
27C8
24F8
A84E
1B91
A7D1
1CDC
AC20
9F5E
AB4E
963C
282E
2A13
1670
A4D8
A958
2E2D
254C
29B4
25C9
1D05
A364
290D
99B5
A752
9D2C
AA09
A9CF
A6C1
28D4
A4BD
262D
1884
A8B1
1979
17A5
2808
25E1
24FE
9550
2AA4
A458
A08E
257C
23ED
AAD9
2364
A85A
2A9F
1EDB
285D
2381
257A
A8B0
9440
A8AB
21FF
A6D6
22BD
2CB6
23B7
A81F
2B09
1748
8FC0
A23C
219F
A8E6
A210
A7BD
A96A
1FAC
A101
1EC6
26CD
2A29
290A
A62F
29BD
A8CF
A2BD
2401
21E7
1C2A
AA68
AC83
A6F9
27AD
A632
1DF2
245B
1A38
25DA
2769
9C25
24E8
9CFE
A667
236E
84B8
A530
253A
1E8C
A1F4
2837
24D0
2543
A08C
A725
24EA
AC0E
A879
28A3
970B
A15F
A6F0
9D84
245C
A210
28AE
A701
1AF4
A6C8
2BF9
22CE
2DC8
A527
246F
A679
A593
A770
95C0
22C5
A5E2
A84B
266F
A7B0
254D
A208
A680
A4C7
2754
A514
2227
2E2B
2F7B
2139
AAE0
2C2E
28AD
A3F9
24F2
A87E
1B80
A7B4
A41C
A0C6
A8A2
2D83
2A70
9F77
A615
291D
212E
A4C3
A8F5
259E
A662
28AC
A6D5
AA07
A48B
24D5
2409
A464
2446
A087
9012
A487
24B5
A36D
22FE
A790
25C2
9F57
2879
A60D
A884
2863
2648
24E6
9264
2065
9E9D
2517
2948
234C
A818
A3F1
2712
2056
27CA
AB63
A554
A6CB
1C08
24F0
A415
AAB3
9902
A85B
A235
2AD3
A8AE
2418
24FC
A5A2
20F2
2499
2922
A7E3
A749
28DA
A8A2
17E3
9CA7
A391
202D
A6C2
287D
28DC
2343
2236
A93A
2265
A817
1181
25E3
2988
A8D5
283B
A715
2444
A6AC
2565
2584
1404
2461
A805
A6FA
A8E0
215E
A7A1
8CDA
26E5
28A7
A805
2916
A4DA
A9FB
2690
293C
9AB4
2577
9819
A737
AAAD
A237
A2D8
A453
A830
ABA1
A7A2
A4DC
9D43
978D
19D5
9E9C
2653
ABBD
1F2F
27D2
A508
2065
2844
A131
295D
2261
910A
1A5B
A5AE
27B2
24F5
A433
2678
8FEE
A9A5
A789
9FBB
268C
1019
21B1
272E
25E5
25E6
2755
2AEB
246A
A744
2289
24FC
2A42
2C87
A5B8
AAEE
9ACE
290D
A3C1
241D
A0CF
A60A
959C
A616
A559
2924
2191
18DC
9C8C
287B
21FF
1C01
A6ED
2849
2160
269A
A666
2819
A543
AB48
1F12
A96D
9886
1F3D
323D
A4BC
A85B
A902
28C9
A4BB
2D0B
2906
2771
A822
A246
AE06
A596
A9FB
A91C
27B7
2CAD
2D9B
0D47
A658
20B8
1D3F
1D0F
2FA1
2907
2478
2A1D
2C1B
2606
A2FD
9C66
2278
A373
1E6B
A052
A6F5
29D3
A445
A7B1
2152
9C5A
2744
9644
2374
26AA
A40E
1824
AB4E
AAC8
A67C
2469
2845
A29C
1CE0
A10B
AD4D
247C
24AE
26A7
8819
A6EE
291B
A395
2A87
1626
AC36
2E4E
A3E0
AC5F
26F6
AA33
1E82
B04A
AEF9
B2D7
ABAB
1D0B
2D83
1E60
260B
2663
2C52
28E1
A9A7
287D
0AEA
2F9E
2BE1
B0D0
B089
A4E2
254A
2BB3
ADCE
B11D
99EF
AAD0
AC3C
B191
AC7A
A6A5
2A03
1FF7
2569
28F0
27AC
9198
15E6
25FD
1E82
24D7
AF7B
2868
3035
A96B
AC74
AB87
A757
2DC6
AB96
A933
2F72
AEEB
A868
307E
2C37
2C52
296C
2465
A477
1AC3
200F
2542
29A4
2844
2CB4
2E40
2E32
29C5
ACC1
1F49
8F96
278D
B232
B1A6
1D05
A70B
1DBA
B1CC
B0B4
AB8A
1DB4
2B71
A862
A913
2AA3
A187
2A51
2970
AADA
A857
267D
26AA
AC75
AE2F
AB25
A58D
2895
AE77
2060
1CD0
A9E5
ABF4
AB10
2B65
26CF
25C2
2100
A925
A03B
20FB
A755
A93D
14B1
ACDE
A906
193F
24D5
A62C
AC2D
A241
28A8
2865
AC82
AB07
A92A
2D88
AC98
ABD4
ACA7
A7F9
9E65
A06E
AB80
A1FE
AA78
ABB8
AC19
A82E
A7CB
9FF7
AA4D
A551
2C4B
2A01
ABFD
AE4C
ACF5
2C0E
262D
ADF8
AD66
B121
B225
AF41
B055
25F4
A4BD
2889
A818
A8F6
29BC
2435
28D4
A216
1F56
200F
20AD
247E
257F
A8E3
97C5
85D5
2A1C
268B
2822
9C3F
211B
A290
20ED
2921
2399
A0D4
2D1F
28A5
2439
A845
A6F6
A801
ACBC
A5B0
A555
2618
2E96
166A
2211
26EE
2F98
30FF
A742
A253
3182
2C3E
2D33
AC42
22D1
A810
8DC9
24B2
1F52
29CF
21A3
A4C9
24D7
2273
1CE6
A7C8
20E9
2960
A6FD
A789
25E9
1515
93FD
AAF8
A044
9F5A
2A56
A2A0
281D
AC2B
2612
24E6
1CA0
27AF
9FB2
2598
A875
26A6
1771
AA56
A871
AA19
2853
A494
1876
9FEC
A474
A9A5
210A
2C71
18A4
AA3E
AE88
2DB5
2CF8
A81F
991F
A8AA
A455
2787
A33F
A0B4
A47F
A4C0
A735
ABD8
1C2D
AC90
16A2
9957
28D2
AB6E
AAA1
29D8
9DDA
A869
AC42
A8F2
ADD8
A716
1BEF
A26A
A608
AB47
A913
A67C
25C3
22AE
AB33
A33E
A8D9
A15E
284A
96B2
265C
92F9
25C1
22E1
2C6A
2D3F
2687
AC3C
AD85
29AF
839B
AE12
A35C
AC97
2114
A880
A84E
1754
A936
A827
1C82
256A
25BC
9AFA
1A25
2D51
2B04
2A58
3265
2D6C
2CE7
29EE
2BDF
2E54
2945
2D94
9FDA
AADE
AEDF
AE4E
ACA3
1F2A
A1E0
A911
ACF9
ACB8
A75C
A14A
2694
ADB9
ADF9
25CD
24AF
2B2B
A29D
AD3E
A3EC
B1E9
B1F0
B371
B051
22CB
ACD5
A27E
262E
A979
2749
A978
A5DB
A1A7
9BF2
2538
AA2F
AE0B
A2CA
A825
210D
AC29
AC60
AD4B
204D
A16A
2C51
B08B
B227
B129
2A39
A4A8
290D
2AA6
25DC
AA08
A85D
274C
A71C
A83D
A33B
14FC
2CA6
28C8
A9D3
9419
AC7F
A712
A48F
2373
A4F0
AC0C
ADC2
AF8E
2282
9563
A595
ACA8
2815
2182
280C
2984
1D0C
2285
206F
A6A3
AC62
A990
A5AC
9F82
2F94
2B77
ADF2
B08B
A930
2EE0
2FAD
A71A
B021
AB09
AB89
A327
2D15
2E22
2E8E
2A4B
1E5F
24BB
2FD6
2B5C
ACAD
AF37
2D8E
2A9F
280D
A9DE
AE63
2C6D
A568
200F
3033
3292
31E0
2CDD
A477
2524
AC09
A993
A7AA
2966
A497
AC9C
20FA
A2A4
A86F
27E9
AC8D
2194
2109
A415
AAFE
A20E
2390
2950
28F6
AB2A
29F3
30A7
2EFD
254F
2559
1E3F
A3CC
A4FC
95C9
28E5
9926
11B8
2703
AB43
21CF
A43E
A90C
2AF2
9FDC
1907
A81A
A18E
222D
2CA6
A574
2A9F
2E3D
2AAF
286E
2A8F
2CCA
287C
2C3F
AA15
A92F
A6C0
AE21
2BFF
2B47
ADBA
AA93
A89D
24F3
928A
AB56
1A09
2C6B
29EE
2C6D
30C8
31EA
3424
33AA
2E83
2772
25A8
264A
9E22
2AA5
25F7
A913
A87B
A573
A05B
2871
2537
A374
1AE4
2606
AA90
2776
29FE
2C3D
2955
ACC9
237C
2C29
2D9A
2901
A487
271C
28B9
28D2
91DB
1C72
A005
A0F3
9D4D
9EA5
A2EF
A809
A4F7
A574
1ED7
AC09
A81C
2786
2646
2538
AEA6
AA15
2150
2BF3
2DAA
189F
26B0
25E7
2465
AC7F
AF90
A0A8
1917
A866
AC77
B02F
AD02
2965
2A80
A283
AE80
B3F8
AC5C
1C96
A9F6
2CF1
AE55
B2F3
AB96
A592
A94A
2BFA
269F
25D2
1C7E
A156
2C56
2E3E
A272
AE22
A89C
9EA7
2DF8
A642
ACD1
262A
A05F
B0D0
B157
B3EB
99AD
ABD5
B0FF
B372
B4AE
A731
AC28
1DBD
2418
1F56
A81C
209F
A157
9C58
2D0B
A49A
2A01
2889
1647
2031
A413
A617
2EA3
27B6
9E40
9A25
AAF8
A866
9CB4
18C0
A72A
A334
ABF8
22AD
28EB
A70F
17B6
A444
A620
2066
1E1A
2350
A825
9E57
24C6
A918
9D0D
201A
91EE
A742
ACB4
AF21
A80B
ADE6
25D7
A8D4
A03C
1D38
A760
9F7A
A10E
A09D
2BD9
A0CA
2964
244C
2674
9A1B
2276
20E7
9DF5
26DB
A750
1FB2
A85F
20A5
2793
A9AA
2452
9456
ABE2
2803
24E1
233A
28C6
2463
2C02
3192
2C74
2D61
2C33
2F4D
3038
298B
2865
AD14
A773
3309
2805
9F9B
24BB
2D13
2EF4
A4AB
2860
ABB2
A557
26AA
21A0
25F7
A738
26EC
2374
90BE
1E0E
A270
A97C
1BFC
2354
A546
AABA
AAAB
25D3
208D
197E
244E
8B4F
2C79
2CA8
280F
A072
29BB
A8AB
A82F
9E07
A85D
26F2
ABAC
A808
2153
2421
295A
A19C
2742
AAAC
1996
A901
A049
2339
263C
A567
AECE
B09A
AB69
A9EA
A710
1DD8
2269
0DAB
9EC1
9ECB
87BC
A449
29AA
285C
A9B4
AAB8
9F6D
A7AB
A5C1
A9C7
A36F
2129
A7C3
227E
2438
A595
A9E9
2AA3
A93E
27B5
2E46
2D39
10FB
A984
2DEF
268D
302F
2911
AD7D
2A1C
25F2
2CB2
1C03
2332
AB4B
ACE2
B077
ACE5
1A25
2606
25BB
B322
AFF0
AEE4
9E6B
964F
20D0
2D83
2F58
2DCB
267C
0BA3
A1B4
1C59
A0D1
25FB
2929
AD7F
B0B5
263A
AD59
AE24
2CDB
2D01
AD4C
B2A9
B232
A596
9853
96D7
A8AA
A803
26FF
28C8
A18D
2B9F
9D37
2CF9
9C03
A7B6
A974
AB0A
1798
A5AA
A08E
AC97
A906
A996
295A
ABD2
9EE4
22C6
2D8D
2742
20B2
A40F
A54B
A758
A8C8
2714
A7D8
A5B1
2466
205B
A801
AF06
A887
2655
1134
2416
A927
A82F
2151
AD9B
2E86
30D9
904F
ACC4
A997
A504
2956
2E90
2E36
27E0
210F
29A9
AA56
AA9E
AB89
ABF9
AA73
A639
8E8E
283C
2225
AB98
2A87
2DFF
2E09
A9AF
AEAE
B157
2241
A452
A29B
1EA1
2746
2B7C
A9C8
A830
8C47
2168
A53D
224A
2559
20F7
A409
A17D
A78C
AD69
A6C6
AE73
AAFB
AF43
29FE
2C12
AF38
AEEB
B144
A80D
24BC
1C71
2CB8
252B
1F96
2400
298D
A87D
1540
9C6C
28E5
290C
AC86
AAB9
A7F0
28CB
2926
A344
2C31
A8E3
2CA7
9C77
A594
1F92
2ABA
2842
AB86
2CF9
2961
2849
A26B
A5BA
2800
2CE9
AC6D
AC7B
A4D8
2C37
2E43
12F0
A8F1
B036
B1BB
B15D
2E49
0D2D
B157
B24E
9F12
2410
A73A
2041
18A7
9B80
A8D9
241B
AA84
2466
21A5
286A
27AA
A895
247F
2195
A910
A452
259F
A5FF
A81A
A678
A9EC
1B5D
2833
AA08
A8F1
A9D8
29D2
2C75
21EF
AD92
B01F
AF56
29DF
AE46
1BE5
B02C
A877
B0A9
A5E9
281B
3071
ADDB
AF66
2BA7
2E99
3046
2F5A
2F53
2D1F
A73A
2903
2153
A6A5
12CB
2A1F
A471
1D52
9FB2
A425
21F6
290F
A611
1D3D
A43E
26E2
2C96
2904
24FC
A603
20F6
A175
A4D9
1F58
AB94
A3C7
A569
2477
1C86
A6E5
A3B0
AA07
A66B
20D0
2366
A5D2
A9E3
A84E
25E4
198A
1D91
A50C
A85F
A69E
2603
ACA1
24AE
2D1E
2B06
243B
1681
A723
262E
2097
2911
AA43
A8BD
1CC8
A364
A6AC
1F83
A933
A24C
2A8A
A937
243E
291C
2CB1
1886
20C7
A8F2
A18D
2870
2AE6
2726
8FEA
AD10
AB01
9CEC
283D
A0C3
A1CC
911B
2D42
2AC3
1B6E
1E45
298E
2B9A
2059
1CCF
27C3
2DE9
9A38
2602
ACA7
AB63
AA15
AB28
24CE
1AF9
A9D6
B00A
9D42
2BBB
A60E
A8D0
202C
0808
296C
AB24
AAED
2D91
2882
ACFF
2A91
1EB0
305C
A401
A94D
2F11
2F6E
2ECD
2E01
289E
AEF1
A7AD
249E
A4C3
A94C
9857
28D1
A486
A2E4
243B
A968
28B5
21CB
9F20
AAEA
2298
2820
A6F6
A688
250B
A1AF
18C7
2FA5
22A4
1B87
1FF9
9B8E
A5C3
2003
29A2
261B
29AB
20A5
240A
1AED
9D9E
A717
A4BE
9EF4
2360
A224
282F
2518
A426
2489
2208
A76B
1E78
2166
95A5
A245
2AA4
2863
245A
2722
224D
AB41
9A85
2567
A008
17B9
A968
1E34
263F
2040
2968
269A
2565
11B6
A2B1
AC11
285B
AA61
A059
2437
A7FA
A2AC
2A41
22CE
A9C6
A900
2758
AC44
A4C0
2552
2A65
2BF4
A74C
9E53
20CB
A9B6
277E
2B51
2859
ACB6
A7BC
2600
25B3
2F24
2818
A8A2
2915
2B82
2339
25B9
2A59
A7A5
2735
2135
9D3D
2161
28E5
28B5
A794
A78C
269A
2BA1
2B18
A54D
A20B
A82D
A9BC
2DFB
205A
1AB6
257F
AA52
A585
A9CB
2B14
2471
9D07
2196
26BB
8B35
251F
9994
2695
2B10
A947
2580
A82C
2C34
22EC
28FA
28F7
29EB
1ABA
2BF9
A56C
1494
205C
28FA
A8E0
9B6F
256D
2654
9D04
2C2A
98BC
AA21
A519
9E20
9E25
28FE
266B
2AAA
2731
20EF
A4D8
2A36
2908
9F07
A94E
ACEB
29DC
A8E0
2878
29DA
2C73
267B
2A9C
9688
A16C
279B
2408
996B
2508
23A8
2549
A876
A03D
A2E1
ABB8
236E
1A2B
A07B
AAA2
A43E
A80D
A702
2591
068E
2732
A003
2803
A8EE
2644
9C0B
2518
9DC1
AC40
9A3E
A910
1F12
A8C5
A01E
A9BB
28A3
1A68
2A3E
AA99
A908
A08A
2780
2775
297C
9F6C
2417
A43D
298A
28EB
9EF7
985D
26D5
1E56
99AA
99F1
26E3
9FC1
2856
24D7
253D
200B
294F
2833
2939
943B
A47F
A35F
9540
21E6
AB24
215B
A736
9C25
1FF5
A4DB
A095
A149
AA54
A92B
2984
AD0E
AAC6
A477
28C4
288D
A698
A926
2A17
257C
26DA
A398
2A52
25FC
A4A4
0C96
1A19
A546
A032
A054
228F
233E
9CB8
A8B4
AC24
1BBE
23B8
A794
2A36
A804
2BD5
253E
1FAB
A9F4
29F1
9C2D
A8B2
A960
23C1
A83E
269B
2216
A794
A7FF
0E42
17FE
9EAF
214B
9DE8
A1B5
ABE7
26F8
A761
9F8E
25AC
2417
A66D
249A
2669
230F
A426
2A34
A41C
1F16
22F9
2793
26B4
245A
A4D1
20D0
1E5E
2252
207C
2A61
233C
A52A
A8DA
226F
A58D
A901
2A0B
A0D0
AC04
AA6D
A52F
A6C8
26F6
A0FB
A29A
252D
A91C
A5A3
8592
203E
26B0
A7AA
282A
AA48
2122
A47E
9D6A
2730
205C
2B34
2A2B
A43E
A52E
A884
2701
154E
27F3
8B0C
1036
A8F8
A9EA
2182
A8C7
A5B4
24E4
22A9
9D49
AD2E
A375
A8F6
9954
25AE
91D7
1E95
9E04
A5EA
9A4D
2393
A4E7
2C51
22A0
A5AA
9EE6
25B9
2579
A897
A4DD
2085
1310
12BA
A35D
A00A
14E8
29B6
28CF
238C
A8F4
22A4
2555
28C6
1EDF
299D
AA5C
AC3C
A94C
A503
1DE4
275F
2938
A587
27BA
1551
9D3A
2421
24A7
27F8
2205
2244
9D08
256F
A011
2787
A81A
AB0B
2247
25B8
A8A5
9C68
A8F2
2716
984B
2AAA
2740
2430
A44B
1D63
A7F1
27A1
1ED7
96D5
A4EC
2699
2977
2CB4
205B
2696
25D1
A0DD
20C0
2802
A3C3
23D9
A320
2652
9C33
A471
AE2D
A69E
2886
A0C1
9D50
20E4
2A92
A85A
206E
2A10
26CA
1EC8
196C
A486
296C
2D5E
1C1A
21EA
2820
A5E3
287F
18E9
A7D8
A50F
9578
26F1
A1A9
2053
1C02
A439
2361
98A5
A72B
A6C9
2132
A61E
A7AC
A835
184C
A16F
1214
2238
AC9A
9C81
ADA0
9C23
A759
1F83
A243
A70C
9AFD
99B1
22F0
2D02
13B8
A682
A711
9F16
A39E
2C4B
24D8
278D
9793
A413
AA0D
A99D
A289
156E
AAC8
27B6
A8B6
2AC2
1E1C
27FB
AB9E
A297
1864
A52E
184B
A409
250A
A69F
28C7
A775
A685
A22E
17CB
22DC
2256
251A
A76E
23C0
21FC
2453
25E0
99A3
A39F
2484
151C
2709
A6C2
A4CE
2756
1F6F
083A
2AA3
2170
A89A
2972
A4D3
2809
2942
2898
235E
AC6F
A9DB
A500
A5E9
A85C
A13B
21BC
2D21
17A3
242A
2660
2A51
2281
ACF2
A0D2
2772
A5F5
9D44
AC43
9C36
276B
2880
27AA
25E1
A793
1911
A64E
287D
27CF
29FC
955F
2790
A9ED
25DF
A38C
A48A
28CB
291D
AA99
A23F
0F07
2789
254F
A89F
A223
9F2D
29AE
9E5F
A746
AC10
8CEE
241D
A490
AB81
A83D
2453
2A8F
8B9A
A5C1
25A7
2387
2335
A48C
2454
288D
2328
2591
28F0
9EFE
2198
A108
AC54
A91F
2417
A89D
95AC
A74A
2263
971D
2C84
A894
26F0
246E
A5DC
A83F
A6D8
AC23
26F8
27DE
1E7E
ABAB
1BF2
9F56
2641
2256
A8EE
A930
A8A5
26AD
9E22
14B7
A70E
266F
A6EF
24A5
A719
28B3
A54D
A226
2403
1AD3
22FD
28FB
2A36
9F4F
2085
1C6F
2418
2012
AAA8
AA2D
A3C4
246C
A246
AC49
AD40
2113
ACA7
9BAA
A9CD
963D
26CA
1A4F
A6E5
A16A
A74A
247E
281A
A338
99CC
28FF
2293
29FF
A4D6
AC92
9AA8
9F14
A140
A377
AAEC
259E
2825
A49C
24A1
A151
A328
9F53
A5D6
2825
A204
A4AB
28AD
A92E
A954
A11A
A032
029F
A6C5
938E
241D
2674
158A
A6CF
25FC
15C9
1447
22EF
23BA
A7C3
20DA
29B5
213C
1C76
A465
A6EB
994D
AB06
2054
1E71
1CE6
0B89
2995
205B
A475
2587
9C10
1259
A7AD
A3D4
22E5
27ED
1C13
A782
AC26
296D
A960
2ABA
A4A8
21A6
26BA
99CC
A70B
AB8D
97CE
2702
2955
1BBA
2873
9946
284A
A80D
A8AD
986B
A783
A6FC
A014
95EA
233D
A7B0
A694
24C6
24A3
23E7
23C2
1E27
2179
A8F9
A570
2122
2400
111F
A432
9AFE
A721
A496
A480
2851
A75C
A768
227F
A782
25D4
A6DB
1E52
24D3
205C
09C4
A025
1DC3
A567
28A1
1C1F
911F
244C
A65E
A1F7
A60C
966C
284F
AC24
A084
2010
2A46
28DD
9A2C
29BF
9B04
26CE
190C
28DF
8A8E
2568
ABB8
A8E9
A8A2
A5ED
A0C2
A251
A0C7
A89D
2586
A8C4
1D5F
AC68
A8C4
1C57
A919
AA4E
2187
A11E
241A
A351
258F
2331
2605
26D0
26E5
25BA
2C8C
2BCF
2807
2B7C
2E0C
A455
26C4
0D8E
ACCA
A242
1C25
296D
A0F5
2E66
A8AB
1FD9
28BF
1798
23CD
A8E7
A965
2535
28A2
A524
9EB3
1E89
A98A
A4A8
A313
2D3A
2536
258D
2306
2891
994E
113A
A821
29E3
AA2C
2087
A914
184C
2157
1C33
A5BB
1210
215F
2990
2891
A816
241A
28B7
29C6
9CA9
2327
A395
8D8E
231E
A868
A7DA
23DA
A2B6
A70E
A8FA
AA68
25A1
A87A
A794
A89A
A6F9
2977
A28D
A86D
A607
1A55
A346
253A
A9E1
A8DE
2443
27BE
A165
ABE0
2840
A126
260D
9CCC
28C4
A9C4
A15C
AA08
A951
9EA5
A1BD
2C4C
297D
2625
20FE
A6B9
A75F
25C9
A484
A033
A93F
2370
2C47
2A03
1C09
1051
A431
A29E
A524
2886
29ED
22A5
2562
21BF
9E81
25B3
A6B2
A80A
260C
ABDC
25CB
2424
1DBE
24B3
24AE
294F
A5E8
A524
27FA
29E3
9D10
A863
28C5
97E1
2488
25DF
2639
A8EB
9EDD
A2BC
25E9
A2AE
242C
9FB2
24F8
AAED
1A5F
2A23
29B9
242C
A778
210F
A10D
A6AA
AD12
A45A
28D5
1D91
2B9E
9CEE
9E9C
285D
AC7F
A632
AB1C
97A8
A46E
22EF
1D9F
ACDE
A8CE
1B6C
2A18
9D3D
A1AF
A962
AE8E
A817
A10D
A5A5
AAFE
2832
280B
27B1
A51E
AA30
1BAB
27FD
28BD
98BE
295C
9615
2109
A924
2356
24B4
AB43
A20C
A80D
20B8
AA33
25A6
9CBE
244F
21EA
2667
9C97
9AEF
2409
AD64
AC08
A883
A355
9DD1
A5EB
2835
A9E4
18D9
28BC
2146
91FF
A2C0
29C7
A829
26BD
A5CF
A65B
29F2
2A3B
A03A
A65E
2ACD
A5A2
292D
2B37
A705
A2C5
256B
2573
A61A
1C4B
A542
A63B
A7F0
A8C3
A04F
28A1
A2D6
A98C
250F
A90B
246A
23CC
9CB3
A63A
2766
9F5A
1C74
A4D7
2638
A454
A60A
A647
1CBF
AA61
2885
9C29
9B03
A670
A295
2535
A3F2
1E8F
0D7D
A4C8
A27E
A38C
ABDD
A246
28BA
A40C
A212
9E93
2858
2584
2990
A7B2
A805
A50F
AA64
A70D
9CA9
9CB4
A638
20FB
2015
A893
A101
2860
2764
238B
2830
28D8
A352
1F31
A870
200B
243D
A3D5
28B8
9E00
1CBD
2569
8B03
29C9
A15A
2132
115E
A983
14CC
A8E0
A86C
A32A
9E65
A732
25F3
A577
A919
AA81
24FA
A0D1
8F1C
9577
9FFC
9FCA
A897
203E
2838
A837
A2AA
A96C
ACF0
21D9
200F
AB75
A3C4
9EB9
93EC
A886
2545
9F29
A02F
2675
9DB6
B408
28A6
AAE8
A48F
1F06
A905
26E0
253E
A405
150D
282A
96EE
2565
2415
9D26
A2DA
2327
A82A
2022
2B3E
A5DC
A98A
AAC5
A3F7
A89C
1CB9
AAFF
2683
A689
24A3
A5D3
A9DB
29DC
9719
2AD3
2533
246F
160F
9902
1B0E
A2C4
A589
2212
A88C
A580
23B8
191C
A022
24BF
A54F
2775
A2D7
2104
1485
A3F4
2528
A8F3
9FF5
A072
2AA9
A27F
A305
AB16
A002
213E
A8CF
A159
2304
9CFA
A11A
2B80
2450
1DB5
21E3
2668
275C
2C88
A69B
9C0A
24D0
9FE4
A9C1
A087
A974
2C2D
A535
252C
2A10
A879
1965
A915
9D38
ABB2
28E5
AA57
2ACF
03CD
1F73
2994
A778
2D42
9CD0
A03E
1EED
A310
A68C
23A5
245C
A845
AD1F
2B06
2099
A881
A463
A981
1DD6
28F6
AB02
241E
2012
9C3F
27A5
ACB7
A821
2C96
2A23
A6BB
A61D
2570
A3FC
2554
A3FB
A413
2567
AAF3
240C
240C
A777
285C
2457
98D7
29DC
A7FB
9E45
1259
2675
A16C
17F1
29C6
A545
A229
229A
2699
28A7
25AE
2AAB
2099
26AF
AAC8
258B
28DE
2591
9816
A682
A008
25AE
2563
250C
9C13
A661
A4A3
A159
2892
A168
1A25
2510
A6F5
24B4
235E
A52F
0DEE
262C
260F
A757
A6AC
A69C
239F
2746
2C2F
26B2
A992
1F7D
A2CB
25E9
237E
273B
A6C4
299E
9F99
1E99
A776
24EB
2619
A4AB
273E
2012
28C8
A2B8
2491
A660
A97E
A80D
2580
0D53
1DA0
AAE3
A48B
2079
27A5
95C3
A304
2547
24FC
2AFE
A84C
2B99
226C
2272
2855
A535
28E5
2847
1E15
A6A5
2B17
2925
A794
258E
1CAB
A57A
9715
9F3D
2735
A652
9CA4
A0B1
1BF0
A32E
2906
9E0D
A422
A0A8
218E
A039
A8CB
29C4
2574
A6B2
9FAA
A264
1BC8
2A0C
A5B0
243D
2700
2137
1BD0
2029
A53A
A0CD
A06D
2912
A943
2423
2809
A656
1C9F
9F33
9C51
A956
1917
A72E
A437
A24F
8A64
194B
215B
A569
A604
2332
27FA
2107
27BB
2327
2802
24A9
2444
98F9
AA3C
1B16
96E3
9BCF
A88B
2A94
229D
A75B
26C8
181B
24EA
1C1D
A9A2
27A2
A80B
229C
9171
993F
A663
90A1
2A2C
261F
A8C8
24D2
2988
1EA5
910A
9CCA
254E
A8B4
9E0F
A055
1DA0
A584
1DC0
A6A6
9127
A573
2C60
1DE5
1C6D
9DD0
A467
A573
23D4
9F45
2382
9DA5
A35A
279C
2A1D
27AA
25F0
2A9A
249D
A7C6
2835
AB66
2689
A72C
2782
A5F5
2644
20C4
22C4
2286
26D1
2500
A3B9
1E91
1FDA
A37D
A34F
24C5
A8CF
A2E2
A773
1DD2
2A44
A72F
A8DD
271B
1C89
245C
2634
8CD5
22E0
110E
A8FA
29CD
A93E
288D
A596
A8EA
2816
A172
9B50
A86B
9029
1238
294F
A971
9EFF
277D
A8D7
A5F9
A9A1
ABB0
1C34
1564
2245
A855
26E0
A525
2082
2AD6
2775
269E
A88A
9EF6
A1B3
249D
2823
25D1
1125
A657
2662
A70C
A5A2
2486
2835
A443
A681
AB4A
2705
A160
98E6
2A91
A6AB
2649
A92A
A0D8
2865
AAD3
2104
2457
A0EE
A6EA
248E
2836
2547
2205
2906
24D8
2233
A8F8
A8C4
90E4
2A38
2685
28ED
1BA5
1C11
A43A
1B1E
28AC
1C95
25F2
A715
A068
A63F
1C4C
22F6
235D
AA6A
2562
1A8F
A52C
2324
278A
25C5
AA05
2534
1F1C
A7D7
A131
2607
294F
A577
A987
A45C
2CEA
2988
AA84
25F2
2A2A
282D
A9F3
A5A6
18E4
2594
292E
1705
A559
294D
29F6
19DC
A885
1754
267E
9ABA
A2F5
25B8
08D1
9895
1C46
A334
29CC
8FA3
2976
2720
A768
9F3D
284D
2C9E
1FED
A37E
A5FF
9D06
230F
A66D
A36E
29A0
A37D
258B
180D
A9ED
2837
18E6
25D3
A3B3
2890
AA70
992E
2941
A0AA
A21B
255E
2B8D
9CF1
251C
21C9
AB5B
1697
229F
9BC7
A8B9
2270
9D58
21B1
A144
94A2
2953
26EB
2C06
2A36
9D9C
2453
A805
AA16
9463
AA3E
A826
2BAE
A4B1
9DD4
1E13
A98C
270D
222E
A2A3
24C6
28F8
2715
21B3
9C03
A04A
9B5F
246E
216A
A9DE
A785
A839
1D3E
29CE
2834
A51D
AA1C
A413
A9A6
A6D5
21C5
2496
9D3D
2449
A248
25F2
A5BE
26F1
A9A6
178A
A86E
2744
1CFA
2976
A741
A419
2120
252E
2604
26EE
2453
A3FF
A822
A365
18AE
A621
264E
2497
A477
2552
A770
1249
19B2
26A4
A232
A8B5
26B6
A40E
27E2
1C57
A884
231B
A6AB
9E05
24F7
8C8E
257F
A6FC
A9EC
2042
296E
A719
A6D7
A81F
2972
A5E9
A326
2A88
28A9
28BE
2283
9AFB
868E
2CBF
287A
ABF1
2B19
2A7E
A542
9CBC
A3A4
2648
947D
2516
22FE
1D67
A508
2B77
29D2
1E4B
1DB8
223E
24C3
A6B5
26EF
18AC
A71B
29DF
A59B
1E6F
A545
9660
29C2
A52A
A1C2
1C63
287B
2AE6
2657
2104
2A0D
2C9E
A367
215A
A57A
26DC
2237
AA98
A41B
2406
A1C3
232C
A60E
1F46
9E31
AA1A
24DE
A0C7
9F02
2948
2901
A607
A522
28AF
96A7
245E
26C3
27AF
A7AF
A549
28BE
A9F4
29CD
A6FE
A1EF
2741
23B5
9EC9
23F7
2113
2B68
A621
A1FF
A462
259E
A293
1E11
2C61
29E9
A80A
13D1
A14B
29E3
2413
1F06
A0C0
9C31
2890
AAB9
A60F
298C
A994
A6EF
244E
2769
9957
278E
A50C
A686
2639
1942
A66D
97E3
9DA0
27CE
21D2
A313
9CCE
063A
2416
2881
A8C9
2393
A764
9906
2897
A6E3
1FAB
A69F
A27C
282C
A143
A224
AA17
A94C
2635
267E
238A
A987
287A
A842
243A
A865
285E
A5AD
A559
1FFB
2780
A621
A038
2395
9C0A
A509
15C1
1D38
2387
A5C0
A314
22F7
142E
A40F
1683
2002
2760
26EC
9713
2686
9C05
2355
25D5
9A57
2739
24B4
234A
242B
985D
22BC
1C6D
A039
2599
A525
AA49
2674
A731
217B
A7D7
2B08
24D5
2CDA
AB26
2963
A6D0
A909
A3EC
206D
A5D4
A5DF
98EF
2454
1DF8
1BCB
2A2C
1F38
A1AC
2939
A83F
A363
A8D8
1F17
9531
9FAD
26DA
23D1
A598
A122
9F54
A6FC
A140
A1D7
AA57
2AF5
2801
A5F7
2846
9221
06F2
A147
2141
AACA
A412
A580
9D65
AA00
AC06
A773
241F
A954
2761
1CA0
A4D5
2AF3
2996
ABD1
26CA
A604
9F8D
AADF
A85B
AB0C
A567
2D01
A401
98F4
A39A
244A
A5EB
2D05
A948
A917
A8B2
2568
2A54
23FC
A1B8
263C
28C2
A2ED
9BCB
93CA
A504
263C
21B7
A513
A19C
1A9A
A354
A5B0
A60C
9B83
26B8
2A13
A8AC
A913
9F59
8F4A
2C27
201B
28D1
A4F5
293B
A44E
A230
A825
AC1C
A782
214D
1B9C
22DF
2A1F
996A
9DB7
A18E
275F
A3A0
2A43
A608
A89C
201B
29AA
200F
2523
2632
2B24
1D8D
1A2B
A71D
22C3
21AB
193A
2719
A218
17A9
2843
A376
A08D
189B
2012
24B6
1E41
A4F1
2B37
A848
AC6A
2283
26EE
23F0
A0E8
A6A6
A6E0
29BA
AA25
291A
A86D
1D62
A506
AC31
2B5C
9AC8
1A1F
A3B4
AABB
A56E
9B54
2A83
99C5
A26C
A538
9BBF
A7D2
A736
2895
1EC8
24D4
2786
A380
1B21
24B8
295E
25EB
2889
A72B
25C7
A282
29CD
975C
A785
A4DF
A283
9FD3
1D3D
A389
A451
AAEA
28C6
16E7
9129
2930
251B
25B4
A0FE
242D
2939
1B72
2AB6
2B9F
2C22
1B6A
1863
2C11
24F6
A497
A9A0
219E
28B8
A3D3
2462
A0BA
2A53
2681
9C4D
9C69
A4C2
244C
A02F
2895
29CD
24FD
282C
2A11
96A5
A5FE
A0D0
1890
AA33
27C4
2A3A
256B
1EF0
A90E
2943
99E0
2467
A497
25EA
A5E3
9E62
2A23
1CED
AA71
1F53
A825
2124
A4B4
970B
21C5
29A2
A5A3
2436
2B82
2957
A5A9
A7F0
A490
2AF7
202C
1F33
AA54
A8E8
2866
A943
281F
28A4
A9AA
A780
A2DD
2129
2946
A856
21DC
2479
23DF
A359
923C
250A
A522
AA23
A105
9B40
A177
A6BE
21D6
1F3F
2087
249A
A8D1
99A7
2300
18CC
A951
22F0
2710
244B
A5B9
2AFA
1C39
1F8B
9CEE
143E
A0F3
A7DD
2428
27D5
AAA3
23DC
A054
A1ED
976B
A5E9
9D7A
2023
A313
A54F
A4D2
9FEC
29B8
1867
A8E2
A366
2425
A4EE
A3F0
A49B
A819
261B
9D0D
27D3
918E
A838
A718
2697
AB07
AA43
A35B
A711
AA01
2BEF
262C
275F
91A5
22C3
A510
2115
2235
A108
1AF0
A8DA
A99D
1F4E
9D79
A2C0
257C
9C25
277B
109F
283E
257D
1F62
ABDF
A2CF
270B
A1D1
2905
19B2
2157
A551
A611
283A
1F9C
23B7
A61A
274B
A8AF
2070
A166
26E8
2416
209E
2672
9F4D
A78E
2722
2B27
9EA8
1E6D
2431
986C
1FCB
9BA0
9877
26CB
286E
A530
3073
292B
AEC9
ABB3
AB72
AB88
ADA1
2856
28CC
291A
2C49
2E27
2632
3074
3045
A161
1A09
AAB1
B090
2BB9
2539
A854
AF27
AE5A
A7EF
A8EE
A7F4
2CB1
A706
9E62
226C
A944
A501
25A3
A7E1
AB1B
A8D0
9D56
2E0F
2C45
AD1D
A5BC
A827
AC46
AAAC
2814
222B
28AA
1E16
28DE
2B80
A81A
2DE8
308B
2EAB
2DAF
AA95
AA9E
AF90
ACDD
AE66
ACA3
ACDF
978B
A961
A33C
ADE3
27C9
A5B2
A65E
2DC5
AD64
2C5B
2CB9
2E3A
2002
2447
B7C3
B97C
B0A2
36EF
A838
9FE6
ADFB
B3CA
2BDA
AD79
AB51
B104
3484
2E87
AE2D
A723
36F3
3216
31F3
287E
3111
328A
3525
2FAD
250F
AF68
1FDC
3423
356D
A928
B1ED
B086
ACFE
2E46
A6E8
AFBF
B63C
B12F
2DB1
A85E
32BE
B5A2
A9A9
A12B
B764
AD53
AC9D
AE42
B516
2163
AF92
AE98
A12B
20D1
AF38
B291
1E6D
AC05
9E5D
21B6
AAC5
B1CA
26B9
AA44
A9E5
B015
AA8B
14CE
AE65
2F35
2B99
318C
2EA7
2446
A0B5
28A3
2D40
3476
AFF1
B11B
ADB7
2CF5
3467
A9CC
ABB2
AD16
30D8
23D6
B2B9
2E82
300C
2F60
B17B
B4CF
349F
3548
2D7F
B0F9
A4C0
AAF1
2B4D
2C83
305A
300F
B091
B1E0
B30D
A8D5
A9C1
AFEC
B06A
2099
28CD
A980
AC30
2DD7
2FF7
1420
2D2C
A2E4
2E75
2F8A
32F7
9D0D
3067
3167
32F1
9C11
314A
29C9
25A8
2F09
2C6F
28CE
2924
A49B
B542
A596
AD73
2F0B
2C70
B3EA
2D3C
2E67
2F99
3303
355D
3432
307A
2BC3
A8E4
A2DB
82E2
2F76
AC16
99CB
A6F9
A77C
ACC0
2A55
2D10
A802
ABC9
A9CA
2105
9FC9
A3FD
A098
A619
A9FF
2523
236B
2335
A144
3268
32F1
B1AC
B0DF
2C69
308D
2EAA
AC71
B040
B1F6
32AB
A4D0
25B5
9DCF
B089
26B9
B042
2861
304F
AA2A
1F1B
AF07
AF02
1523
A609
2056
AC1A
A8E2
ACA1
A106
2183
2D3F
2B7D
A732
28B5
2B39
AF88
2D57
20C7
1FBB
26D9
A14D
AD20
2E4D
2C51
2955
2993
2B99
21BF
3067
AD54
B169
AECF
1C1D
2713
AEAF
A82D
A11C
292E
2C55
A43C
297F
A970
2B02
2B62
24D3
24A8
2D6A
ACD7
A520
AC0D
2AC2
AF46
B020
AE16
A828
2A75
32A1
3202
96D7
1A3F
22EE
2B2E
ABA8
AC79
AD0D
29C7
220C
A692
AF0D
A9C5
2AB2
2C97
2999
A933
A9D5
2C5B
3187
2264
AA7A
24C2
2D10
2B3F
28C9
A173
8EA7
2591
AC52
25B6
A7FF
A794
A706
2E00
2FC0
A9F6
2BD5
A0E1
A85C
ABA7
1B9E
A9D6
A4BF
2BDB
A975
ABEF
23A8
2A40
2D8E
AC47
ABC0
2667
254B
AD20
B076
B02D
A2EC
29F2
243D
A8ED
B1F8
AA7A
ADD7
A63A
AC68
A7C7
2B12
9FBB
B307
B0BF
AFE4
A54A
373D
366B
3537
3615
2C35
31A8
9FC5
3231
309D
B430
2378
31B0
2FE6
30DF
B105
3318
3214
B1A3
ACA0
98A9
34B9
33F6
2BF9
B157
ADB6
2FBD
2BB3
A0A6
2C8D
2CBD
3345
3020
2BC5
ADD3
A961
9B09
2B13
31D0
A9EC
B14A
281B
3048
A411
2B71
B1D5
152A
31BA
33F0
32AB
B10F
2ACB
3214
A607
AD87
A5C7
1869
3395
30C9
A142
3031
2B2F
AFE8
AA25
2325
ACA0
2DC0
9B37
2C20
AC95
27E0
2C96
2C7E
A045
9F3A
A245
3051
2F2C
26D4
A63F
ACF0
B09B
B316
2C39
2D25
AF03
ABE6
9E8B
2CE0
2AC2
1A5C
AF9E
2659
30BF
242B
A7CD
2485
A463
2FB1
2A79
AC19
B550
B425
B5F1
B550
ABF7
ADD3
B001
A90B
B436
2DA5
27F8
B4E7
2951
9FC2
301F
B060
12E2
3215
2E8A
B23A
B583
AF25
B1A0
2882
28C9
2CFE
2E53
3086
25F9
A912
A949
ABBB
ACA3
2CD0
1511
309E
2F89
2D7A
284A
A00A
9FD2
2993
A8A8
184E
2C22
A821
A82B
A977
AC50
18D5
2EE4
2F83
2B94
A54D
ABDC
A910
A48C
A780
2DB8
A5F9
2B49
2589
1BA5
AABE
139E
AA4B
A02A
A835
AFC7
2C38
AD9E
AE7B
278B
A361
2AE5
2EBA
2F4F
3157
2A1E
3283
2F55
3554
AFBF
2CB6
3286
32BB
34FE
AEAB
352C
3086
ABD5
A711
25C3
2CA5
297B
B173
B501
B4C1
B2FF
A050
AF21
B28A
B11B
ABF3
2CC7
2E2A
29D2
ACC1
1919
2E6D
288F
2859
2D26
2566
2B1F
A9DD
9F7E
2D1F
A725
2ECE
AA83
AD47
ADC7
2C41
9FB5
2345
ABA5
AEB9
B10F
AF3A
A821
A9B7
200A
2D4B
21BA
AA67
2DD5
AAAB
2551
2DA5
A906
252C
28F9
1849
319E
28DA
2F0D
A864
B026
2ECE
3487
314A
2CE7
30C1
3024
34A5
2DDA
34BA
30B4
2E0C
2D68
A6D7
B03C
2E0B
A998
341D
30DE
319D
ACE9
A3D3
176B
308E
2EDA
2B6A
321F
28F2
254B
2986
31B5
2F86
2B9A
AF16
AB27
339E
2D79
2ED2
B1D1
A67F
31E2
242A
ABD7
2231
3214
A38E
31CF
2C4F
300F
31D0
2CB2
2EB0
2C1F
26C0
B07F
AE53
1FA2
3126
2598
AA8A
B202
272F
2B85
25CD
292B
AFBC
2F6F
1F36
A8B7
307C
218D
2D0C
2636
ACBF
1D9A
A6A3
2486
2D25
2CE7
A1F0
2BD8
1F64
2941
9F96
AB2F
B2DA
AC2B
94F4
A322
2EB5
A552
2977
2439
2A14
28D1
2013
B04A
AE09
AC3A
2A92
A039
2DCD
325F
2D60
2941
A5CD
A87D
A816
ADA8
A7CD
A98C
A4AE
2DAE
2993
2CCD
AC76
AD98
A696
24B4
2BD9
A780
2378
23FE
28B0
3010
A96A
297E
AEA7
AFB6
B0CB
AFE0
ADA4
B2C5
B886
B47D
B554
2A9B
B463
BB4B
AFE5
AC3A
263E
B6A0
B6ED
2FC5
A177
3106
A958
B242
2225
26DF
2684
A27E
9C3A
26CC
A5DC
AC74
A914
A4D1
AD79
29FA
A735
A56F
A96A
ACDC
2DE4
2880
29AF
23C2
2A93
286A
98A4
1EB6
B040
B1B4
B02E
2F91
2AA2
B04E
AC60
A0C7
2C34
32AE
318C
A1C5
B183
241C
248F
29C6
A7D2
2EED
A829
8714
2D98
2E1D
27D6
2C0A
9AC7
A9CE
A78E
270A
2AB5
29BB
2C77
2CD0
B12F
ACF7
AB5B
AD8B
AE1C
2595
A9B1
1D7D
2072
28C0
A90B
2B66
1D2F
2607
3128
A895
2D1C
176F
27AB
2984
A6AC
B3DB
B0D7
296F
34C2
3706
B481
ACB1
AE6C
AB7A
2E76
AEDB
2C5E
A41E
2D0A
314F
AA61
1C59
9CF3
2987
A264
B171
32EB
2B9F
AC07
AB53
AFC1
AC03
2D23
A5AC
B249
A0E9
B030
B6CA
B496
B4ED
3489
2491
2E40
B19B
B377
9D5F
2EFA
B086
AA00
B637
3319
3426
3770
A97A
B363
2D25
23CB
A686
1A11
2A8C
A616
A86A
0ECD
B117
A3F3
A939
A896
2E54
AB9C
A553
285C
2860
2B6B
9B0F
9EA1
2FFC
999E
2149
2387
2159
2AAF
2D5F
2F10
300F
2EA6
3067
2FE9
2FDB
A8FB
A766
2AC7
2F6F
2B0C
2C69
2CEB
B4B8
2EDD
2C7B
30FA
3427
B417
B1D9
0EEE
3113
313C
A8BA
B475
B70B
B3DE
B238
B079
B2BD
B0C5
AF15
B2D8
293C
AFD2
28AE
AC93
B194
320A
A9E6
2EC8
B0E9
AA5D
306C
3253
3282
28E6
2BBB
2E4F
349A
3007
30E2
339C
3352
3425
2F15
2E37
2BAA
AD1A
2551
2C75
A672
29CF
B100
B216
3290
2DCF
2A83
B229
B476
AD29
316E
3325
283D
AF37
AE77
B17B
AE37
A607
27B9
2014
2FCC
A233
9016
2603
B048
18E5
2A91
A1BE
B01A
ABD9
A71B
A4DD
AB96
208E
2E41
29BA
2360
B48F
B6B4
B0E0
B143
B453
B035
B393
226A
AABB
A847
234A
A626
2B21
263D
2DF9
A931
31A1
2ECF
3585
30A3
B327
A7C4
2970
AEBE
B2AA
2458
AA82
AACE
B068
298A
2842
A9E7
2352
A911
1825
2F93
AC82
2D1F
301E
255F
2E71
9CEA
A5AA
AEAA
2574
2A73
9A5D
2337
29E0
2608
2EE8
2FBC
333C
2E52
2DB9
2CC2
3486
3831
34F9
3422
B182
2B05
34A4
3206
2497
91FB
2A48
330B
2875
B406
AD0C
B10F
B53F
B5AE
B461
AD59
A83C
AF29
AFE7
ADA8
2A9A
291F
2747
A7D2
2710
2A7E
2B01
26D0
29D7
A5AB
A987
A28A
A36E
ABC7
29B9
2D4E
225D
A9E9
2E64
2F95
2C21
2D16
3320
2D89
1436
A0F5
ABCA
AB2A
9ED8
2D21
A49A
A909
2504
92DB
215E
28AE
ABA7
292A
1E75
25E1
A31C
A8C3
2B36
A8FB
A624
2C83
30E5
9E8D
AC61
A84A
27BB
254B
2D96
2E8C
A94D
292F
2DAE
2A6E
252E
28B1
A468
A90E
A824
2C62
2B00
9F60
2367
AEF5
A9CB
AED7
208C
3105
343B
2F3A
B104
A986
AD96
AD05
A916
2FD0
9DD3
2327
AC1C
A8B6
A945
1976
2B07
2C37
AC69
ADE6
231F
2C5B
2A4A
2F23
A9DB
2B4C
2FF6
2DC0
AC97
AF54
2678
2A69
AD72
1C25
AC91
A804
96DA
2DD8
A4A8
A390
AC17
28AE
A89B
31B9
294D
AF20
B0DB
B163
AC77
261E
31CA
2808
AB4C
A87A
2924
A190
2469
1CF0
23A8
258E
A7DC
286D
289F
A4A4
26C0
2997
9E16
A700
2599
27C0
A7E8
A58D
A854
274E
29D5
1D26
A9C7
2A90
241E
A704
AA38
A10D
24D4
9E9E
1E5E
A645
26DA
2812
160C
A8BE
2A8E
A8F9
A88D
20F9
9C47
A0B0
9AE8
25D1
9CC0
22C0
A802
A51C
2C54
2664
130C
A034
A6CF
8981
A81E
A9D4
A182
2C42
A4EF
1E67
A5FB
2028
269C
2643
1811
A1F3
25A2
A835
249F
28A4
2877
9D94
A8FE
9965
291A
2C1C
290D
234B
AE5A
A0D2
24AA
280C
A7F8
AA8B
A59D
A673
A3AB
28D8
26DC
2404
2C5C
1597
246A
265F
1D60
2B93
1C56
2755
A887
A9CE
267A
28C4
2D73
A203
291D
2A7B
29AC
271C
A1E6
2239
2144
2ABE
250F
2ABB
2BE0
2708
AD87
A1DF
2446
202C
27AA
A826
AAEC
1E54
2588
29F9
26B9
278F
2345
A2F9
22B5
A7DB
A247
A35C
A877
23BD
288E
A247
185C
27AC
A56C
A567
A64D
A40F
24A2
A874
292D
A4A7
A3A8
A425
26B2
AA22
99AC
A866
AB3F
9F65
A3C2
2992
94F2
1CB0
21BD
9540
A3A7
22BF
2843
A006
2640
A5DF
1E9D
ABA9
A94B
A675
26AA
281A
2AA1
2411
24D1
A28F
29E0
A1F0
17EE
25DD
A514
23D2
A2D2
28EA
A891
A811
240A
A6A4
A5D2
A99D
A970
A8EF
AB0E
AB2E
22EF
947E
2BF5
28DE
2595
A49C
A50E
278E
1A2E
A5EF
9CBA
0C53
AA2A
ABFE
288E
2826
2960
A64A
2449
2602
A429
295D
239B
2A74
2CDF
2978
A454
2593
9DA8
18C0
220C
29AB
A0A2
268C
AA14
1F46
A4F8
184E
A98B
240C
A807
A678
A4AF
1B9C
263C
206D
2ABF
2451
1A6F
2394
26AD
2796
AA26
A4C2
264A
24CB
22A4
2CEE
A834
2316
2506
A72B
2130
A236
A9EF
9121
A418
A8C5
931C
25B4
A7BD
A55B
9F4F
21E3
28AC
908A
A7AD
A690
246B
A266
A4A6
27C9
888E
A8A8
278A
AC6D
A99C
2876
1EDE
A8E6
25C4
24FF
2601
07CC
2CA3
25BD
25CE
9EF3
2B0E
24C6
2960
A3A6
A649
1BB9
2BBD
A1D4
AB3B
A876
249A
A912
A09D
23FE
9481
A8AA
9E5B
2358
2429
A827
2642
A57F
A896
A517
A644
287F
A83B
AB0D
20E5
1855
2C46
A764
A6EA
9AA7
AB04
A152
2631
9D14
A3F3
A7B5
9824
A44D
2AA4
A241
2784
0D7D
2826
A261
28F3
2245
2ACE
2538
23FC
1617
9A04
28CB
AA6A
277E
1C70
A444
1F93
9FF3
A28E
A9C0
9F45
AAB4
2214
9D34
2558
150B
A731
2106
2B49
A406
257A
9F81
A430
23ED
2852
285B
AC2E
2856
26F1
29FB
2441
0B25
957C
A3AB
A551
2093
2207
1A18
1F87
A8ED
2534
A4DC
233E
2005
AA23
9E17
A83D
A800
1ACC
A625
20DA
AB39
AC1E
9A50
28C3
A8AE
A91A
A748
A6A5
AA13
A496
1AFA
A3C0
2D9A
27E9
A7BE
151F
24BF
2C7A
257F
26EB
26D2
A513
ABDE
AA16
2915
A99E
27FA
1861
1E8A
1A71
24AD
2981
A5FC
2911
2158
2280
9FD3
A47C
AAFE
9E05
28A8
174D
2450
A4F0
A634
2CB6
2790
A520
28BB
A742
2187
A4DC
274F
9FF0
2811
24FC
9C6D
9553
2270
21AD
A807
A92B
1077
A4B7
A8D4
222A
941E
28D5
AB11
2887
A8DD
A676
A6DA
AA3D
A470
9E98
2934
A6A4
2C35
A5EC
A94B
242D
20DD
1CE2
A263
28F6
292E
A1A2
A5A2
A09D
18AF
2251
A40E
9CB0
247D
A2ED
2393
289C
2CB3
A36F
A786
A838
8DFF
A67C
2503
9D99
9F95
2219
0E53
9FAC
A662
29C2
A777
A4B7
2657
2374
21CC
97A7
A244
245E
2A46
A235
1E9F
A280
2796
A505
2840
A495
A534
A107
27DE
A408
AAFE
A9B9
26E2
A2F9
A981
A4B4
294B
A8E4
A95C
1D63
A528
A14D
25F3
2842
8B0C
1410
A119
A448
84B8
A879
2784
A6E4
28AE
A4CE
239C
A87D
A80B
20B1
28A3
247A
A613
990B
282C
8F14
203B
9ECE
2417
A75E
284D
243A
A915
A520
1C5E
A8F3
A2F9
9CAD
AB77
2913
256F
A343
987F
A501
277E
A6D0
A2CB
2B19
1E1E
A294
1DA1
1246
A91E
A7E6
215F
A872
A500
2393
1870
22A2
11B8
2A90
A22A
A492
2720
9D91
2A3F
A6D6
A6FE
A937
A74F
A1F3
AB68
235B
A314
2613
1BC6
2420
2597
23E1
0E9A
A42F
24DF
A62C
A317
29B8
2B09
A5EC
AB9C
1A9E
1BB5
2D12
A462
1D4E
245E
24F4
A051
A810
AB7C
A8B2
187C
9D2A
A5C9
9D3A
A784
24AA
A329
28A8
28ED
A22E
AB41
2840
2BF0
A718
A6FE
A6B6
23D8
1DC4
253A
A724
1855
2484
9FC4
A1B3
A8AB
0D36
9E70
2190
A878
1F70
2467
271B
A872
248C
265A
A204
A3AF
1AE2
2A16
284B
28EE
A81A
2B72
AB07
1BAB
A8EE
A712
291C
9F6D
86AF
25ED
A3B2
28CC
25B3
A80B
2277
A49E
282F
248A
1A09
25AE
A9E5
9A3A
278A
A4F4
A4F1
AA4B
18DF
2625
268C
A4B9
210E
ABDD
A16D
A5DF
252E
2C26
21B8
25A9
2455
27E9
2576
A758
A63A
A208
282F
A28B
A33B
2147
A595
241C
9E2B
26B5
A598
A57D
A633
A86D
A91C
A17C
2986
A79C
2340
A33D
A5BB
24BD
9CE1
2806
2177
A884
24A7
2430
25FB
A83C
1C33
2B08
2660
23C4
A6CD
9FD3
2156
2616
18AF
A81F
A757
A7CF
A4D3
98D7
A493
2533
281F
A618
26B4
A101
1700
28A5
9CD0
20DD
A391
9290
207A
AA9A
2B0B
21FA
9327
A963
20CE
9C36
29AB
A40E
2519
18E8
24E1
A051
A889
A9FD
2032
2899
A631
2897
1D32
2777
1B1E
A6E5
1CD2
A9F9
2308
294E
AA0F
AACA
20B4
2467
24A1
2100
280F
A65A
A567
1F9D
0DFF
1C5F
9C2A
9453
259E
A3CE
AAC8
2886
2453
ABC4
A89A
25BB
277B
A716
2815
9A20
9D37
A5EE
2908
9E9F
A895
2325
28B7
A7D0
27DC
A38C
27D4
280F
029F
1CD8
2AA5
A276
2981
AA96
29FB
A0AA
2A08
A851
A529
22C5
2887
084B
23B8
237F
1F1E
AB09
251D
AA81
2886
A307
2A77
A570
9BDC
2113
A270
2A0D
23D2
A693
225A
AADA
123A
AC38
1980
234E
25F1
A53F
935F
A768
94D8
2CA9
22BA
2417
25D4
2CD7
A939
A8C6
2C7B
A876
A507
ABF5
252D
25C2
2194
2E29
243D
265E
A530
1C15
A963
288A
8A53
2C7C
AA57
A52E
9AE5
29C3
9DD5
11CB
2991
2720
1F0D
A1D6
250B
A5BF
A17A
A68D
A9BE
A317
2846
273F
0768
9A5F
A4C7
A9EC
280D
A821
1F19
A836
2867
ABCD
AC16
246A
A429
2BB9
2403
24D0
25C8
1D25
244F
23CB
291D
A4B1
8BE6
A273
27BC
A5B6
20AA
A7A3
245A
A1C3
20F4
A02C
2AC1
A715
A3E7
A63D
1E13
28CA
233D
A0A4
2930
2828
27F6
A0B7
AB63
2153
1C5F
269A
A176
AC19
2376
A5C6
A99E
A5E5
29A3
9EF8
96C4
2DD1
AA13
2CA5
1CE0
A0ED
288A
2A42
A773
A994
2A5B
1D05
2B65
A3C1
2789
9E21
A455
0368
A175
AB3E
2A1A
2223
AAD6
2115
913E
2525
A79D
24B5
1D68
A455
2A0B
A09A
26F6
2087
25DD
2672
2A29
9F05
A964
21A4
24E7
1B5A
A801
2A16
9704
A84C
286B
A939
A69E
1338
2722
A557
25D8
29B6
21F0
2801
0592
1E4C
232E
2588
2959
2572
AAE6
9ADE
98C9
27AE
25D4
A6CD
2370
8F10
A480
2A24
16B2
26CB
AA1B
2325
9A9D
24D8
9B2D
245F
A9A7
A7EE
AAE5
A71D
A081
ABD6
A570
2718
288A
2B69
28DE
248E
28E7
1F59
0E9A
252F
2646
9CA2
15D2
A2F2
25B8
AA48
2530
AB85
24A9
A88D
AD44
95F6
25D5
9C34
A4EB
98C4
1A4D
2A84
A614
2637
9B75
A60B
A9AA
9B50
A732
2715
AB75
1DD6
2610
215F
AD7E
A6C4
1A66
2213
9F1D
2394
2970
A0B2
A64D
2B9D
813F
A92D
234C
A80E
2676
A91D
20F5
2797
A8C8
27C7
A480
8A31
2A2D
A10D
202F
A675
253A
2664
2590
29F6
9CCD
A556
A0F8
2493
A8CB
9A6A
266D
A1CA
A5E2
1AB9
A575
2828
1F38
230B
AA7F
2A9F
A59E
A3BD
23A5
2846
AAA9
A98F
A0EC
9937
2330
2084
99B5
289F
1DBF
0D14
24EC
23F9
A529
1964
2497
A49E
283A
A74B
2860
AA0A
A4F2
2834
9C10
25BA
15A8
216D
9B78
9EA2
A6D1
2501
25CD
0D75
1A4E
2AD3
245B
2454
18F2
23E9
A908
A506
2C33
207D
A23A
A29C
1F1C
255E
A456
92AF
AA23
2569
A642
1D6F
99E8
25F1
24FE
A049
A457
9B2C
28C7
2629
A861
9C78
A757
A1C9
A144
9D11
250F
2334
997A
2764
A6F1
187C
206F
A45A
A742
2814
22EF
28D5
28B5
A68A
1467
1B91
9C9B
A82F
2586
AA77
A085
2ABE
A444
31D9
22BB
A3CF
1FD7
2A00
A0C8
297E
A4A6
A633
A33E
2053
26C7
266B
2B84
A3B6
ACA5
280B
2EA0
29E0
A5DF
9925
2822
A645
A88B
A522
A3C7
9C39
A103
A2CF
2463
1FD9
A701
A44A
9C0B
20B2
A267
27FC
A810
2272
20AC
9C58
23C1
AA29
A73C
9CB6
A845
1D6D
2810
29DE
A14F
298F
A423
2098
1FBB
AA08
29FF
2726
A56D
2833
29F9
1F25
A83A
969E
A2A0
A2E8
A790
A61A
A9C5
A677
A5C9
A4EF
9E9A
ABB2
1CA8
A994
283D
A316
A8DA
A9A9
2C79
29A7
2920
ABAE
A829
A836
A935
2C90
22CE
A62F
9064
AC01
2E0C
22B9
25A5
1E8D
1D2E
22F8
2400
A90A
A6DD
ACF2
2833
A9A8
9C1C
A4E1
A94B
9E6E
2C31
28E9
2478
A988
2B2A
2ACC
2DCB
2A95
9D56
A0CE
2798
2A61
25A5
2A69
277D
2775
2BFE
2499
2880
22E2
A936
A8D2
9E19
2921
A4DB
20CE
2786
A75E
AA5A
23B5
A67D
AB78
AD27
A92A
2308
A72E
9946
29DD
9FF6
25FE
A33C
1BA0
232C
A51E
A352
2140
27F3
AB6D
A257
2599
209F
9F93
A5A4
AB24
2409
2C64
287E
202C
26E0
9D39
A034
A6D9
2A84
2BA0
A724
2D74
2740
9428
2C66
A8AB
A8C1
A7AB
225C
23F7
245E
A8E5
A579
9975
A2D8
1BAC
9FCD
A404
A3AD
26DE
A8DF
A4EB
A8D9
8F53
20F5
99C9
A8FA
298C
25EB
23B8
AD57
A65E
A385
A52D
A1DC
ABBF
AA45
A6BD
2962
9E08
ACC0
A9D9
A93D
1770
2508
A843
AFD7
A58A
2078
29F7
A9C7
2626
2A06
2F47
2819
25C9
1EF7
9E1B
2AEF
2571
1F84
A268
9F87
286F
A862
2707
281D
A552
2578
A51B
A48E
1903
9D4D
21C3
A161
A646
2A5E
2C82
A722
285F
2836
27A8
AB1E
9D27
A116
A625
14A1
A6A5
259D
231E
97B1
A811
2659
2914
2929
AA90
A95D
2A5E
9CBC
25D4
1AB9
A434
218D
28AE
2274
2164
A66A
A147
A824
A479
2791
A8B5
AA77
A99F
262C
A79D
2829
A3C5
A978
2ABC
28FD
25BB
A9A1
9E82
1A82
A757
94CE
2606
A867
A777
2343
24E8
1D21
9FE7
A683
1FA8
28CB
2618
268F
A804
A3B3
AAD7
A673
904D
2C27
2666
A583
2C17
1AC3
A938
A36A
2CA6
A46C
A9FC
1C25
A4D1
2591
29CD
219D
9DB8
A075
A816
A272
244E
A787
AC75
A811
A6EF
A97B
A5ED
2463
23EB
9D19
A988
A217
A672
2C09
A874
1CE2
A95A
A902
27A8
282F
28D7
A616
1C8F
21E6
A9FA
AA7E
2783
27B3
1E97
2C30
A71E
A693
21F5
0F9A
2B70
A2FE
A0B1
A4C9
A1E1
240E
90E2
1CF4
A378
A7A3
23E3
2817
9EC4
A927
A32C
2A00
1D71
2C5A
29BD
2C0A
2B38
2D60
A416
2D60
2484
281F
2514
1453
27F7
9F99
A631
AAAD
A8F5
1800
2544
29B8
2896
2452
A957
2B9B
A51D
AB85
AB71
25D1
A5AD
2810
22EC
2068
9CC8
A80F
A701
2BA5
24A8
A539
A7BE
2E2F
A442
A2B4
2845
2031
9EE5
24EE
2492
A351
28B0
2B2B
9F4E
1BB3
A49C
932D
29D6
248F
A494
282E
A272
A377
AC96
A873
2687
A6DA
A24F
A809
ADED
9EBA
A092
2932
2798
9E81
A05F
29F9
182E
AB0E
A59C
A5AA
A509
912D
1C46
A808
2A82
213C
A1B4
2C3B
9FAE
248D
1F1E
96EF
A696
281B
2604
96D0
1E83
A32D
943C
9F2E
A4C8
A805
243A
A3F1
2D0A
2A2A
1F86
1FC5
A925
2C53
2975
A84B
AB64
A9DE
9A3A
2A91
9C7B
ABC5
A6CB
A41E
A1F7
22F0
2481
A164
9D6F
1D55
266C
2B05
26AD
A96B
ACE7
AA9B
A9B5
253F
A2FC
2949
A7B7
A155
ABFE
2994
ABAB
AB42
A84A
AA8B
946F
20DC
2543
A54A
27DA
A04D
A920
A179
A923
1D16
1EDF
8219
2954
1C1F
234E
A5A6
A8AB
ACE3
A544
2225
28B5
28DA
A405
2542
A7CB
A86A
9DDF
25B2
A483
21DC
2534
988D
A859
9E49
A41A
2099
9D39
2420
207E
166B
1AE8
2675
A34C
A4C8
AB0E
A191
2C14
2874
290D
202C
2B93
28A4
2B7F
25D9
2852
22FD
A307
1C8A
A70C
A061
9C9D
A4A9
2AFD
A6B1
A278
9FDF
2641
AB50
AA6C
A3C4
A56B
AD77
A821
9C1D
A392
286C
207F
2826
2869
9E60
28F4
A209
A383
245B
2A6C
1E79
A242
21FA
A6A7
A545
A5BD
285B
A6FA
16DD
2AFB
20A2
A552
A60A
2322
AD65
A802
297D
A460
299D
26BA
A3F2
2578
9E25
2723
29E3
273B
AAC7
26AC
A98F
A265
2315
A81E
A42F
2B07
A994
250F
1F4A
2CB3
9DB2
220D
A18C
A9B9
A4D0
A84C
A884
A837
A975
293D
A520
AA0C
A8C3
A814
A6F7
12B6
A491
B03D
A893
2126
A874
2296
A660
A198
271D
A72E
2920
A214
A8D6
AC5A
A6FF
A94D
A820
A204
A6FF
96F8
2028
AC4F
269D
1DE8
A885
2109
ABE2
ABC7
19CB
2ADA
A65F
9099
A487
1F3A
2954
1EFD
A77C
2392
299B
A84F
202E
2444
A9E3
9E3B
2031
2637
A8FD
A814
A618
1F5E
20E3
24BC
295C
A2C4
20EE
A187
99C2
A802
27C0
1CBD
A69C
2790
A444
AA73
A484
26D1
2421
1368
A0E0
1F62
20DE
25B2
A9C2
A169
277F
2B9E
A88E
280C
A66C
1E04
A9F6
2301
A949
A722
1948
A0F8
295D
A07F
1CFC
A823
26D8
A6E8
A86D
A081
A40C
A4C7
9C80
261F
2662
20C7
A25F
A09C
A569
24E7
A89C
9767
A537
263B
26BA
0925
2566
286F
920C
A5BD
A9AD
82F3
2541
28BF
9F77
2765
191D
A5CE
2C3C
2DC3
A5F1
267A
A487
A547
2204
AB64
240A
94D0
A468
ACD1
247E
A492
A607
1147
A683
1D78
993A
289C
2A00
26C5
A303
974E
9EF7
2726
2436
A6A2
AA1E
2729
A9B3
9EBE
2870
9F35
2899
9705
2233
A4B1
A5F2
2BE5
2A5D
A2C3
1F8A
A747
AA61
A223
953E
A369
2A42
21BD
250F
AB32
2147
272C
2923
1992
9B0B
25A4
AC73
A661
225E
1D26
A931
2482
A2AC
95BC
2663
A063
A656
940D
2884
A904
A029
1921
A3BF
2351
2983
22C0
261D
1B0C
A184
2200
211C
9AA8
A122
26DE
A31B
A851
A633
A978
ACC2
A69B
2995
A24E
24E3
2849
2B2A
2906
25D2
1F27
2A74
A7D4
A4B2
1D36
24F5
266D
A380
A711
ABE8
A360
295C
A526
023A
1E74
AB58
2645
9314
A8A0
A59E
A535
A362
1019
ADF9
A7BC
A6FC
28BA
142A
29DC
1D5E
28B3
2A11
1C33
1F8A
2E8E
ABCE
27B7
2541
A85F
2BAA
9C09
A90E
AA53
A852
9807
A02F
2A93
1D70
2478
29FA
A2D7
AAB8
A2EE
A0B4
94A1
28D3
2A75
A5E0
912D
2070
A711
2459
28D4
A513
2878
270E
9F2A
1A0E
2369
2518
A3FD
18A7
A174
273D
9AD3
AB0F
AAF5
2013
2743
2829
19D5
AAF5
A78C
0C71
A38F
99DB
AACF
A51A
A2CC
ABD3
A85E
2AA6
A9D8
A6FC
9F85
A41E
0E6C
28EF
AA64
AB22
AB08
A409
AAA2
2A08
A179
1C50
A1EA
2942
A575
2874
AACE
A8F7
A295
2316
23C9
98A4
1E3D
A873
A116
A61B
942B
232F
2A19
A0D2
25CC
1D85
A937
AC0D
AB1D
A23C
A394
27C7
24E3
A65A
1C8B
A126
A239
AC99
A7A3
A977
2921
A448
A838
9517
103C
A56A
299E
A14A
938E
A67E
A7DF
2AB6
245E
A24F
279C
283B
20B4
2B55
243B
23F6
A899
28AC
269A
2579
94FF
AA45
AA83
275E
253D
1D3C
ADFC
ABAB
AC89
A6D6
24A9
A968
A6CF
A9DF
AAA5
AA18
AD4D
A7C8
A62E
AC6A
A7A8
AB06
A629
ABA7
B049
A8A4
9FC9
2A3A
A9D8
25CA
9B12
A8CC
2B4A
26D1
A09C
25C8
26F2
1296
285B
A7D3
18CF
29C6
9A9D
9899
A923
A987
A400
292A
0B35
266B
A7D3
A597
222B
A656
2879
A8D7
12AF
AA0A
AB68
A69D
A548
25D5
278B
A2B7
AC1C
A8FF
A858
A257
2697
A747
26BC
27E2
2560
2C41
29B8
A5A8
2177
1CF3
A990
A98B
2290
202B
A534
18F5
1EBE
A043
A245
2690
A894
A3B3
2329
281B
A6BB
2487
2850
128A
A97C
90BC
276C
1FEA
9593
A492
1396
1F84
A3D5
2946
21FF
21BA
AAAA
A4C4
A92B
2A9C
22B1
9DFB
2957
A539
A84D
A87F
A1DA
AC02
A7F5
1E6C
1BC4
2071
275D
A30D
A8CA
A1D2
2799
2A76
266F
242F
1E63
AA45
2967
27B1
1EEA
26B6
27C2
25CC
28F7
269F
9F89
A90C
A554
26D4
AC48
9CD3
2458
A976
9FEE
9FE3
AC73
2072
A77D
A71F
27B6
A401
A52D
27F6
9E45
A314
1619
A368
90B0
22EA
9E0A
105C
251D
A08E
A4C8
2743
2ACC
2916
2B0C
2240
2351
2C68
A45C
A8D6
2719
269A
2C0D
0DEA
A56F
2423
1B77
2532
A92D
2635
21A7
2104
22CE
2483
A578
A67A
AB19
A797
AC3C
A60F
96F8
AE68
8D10
1CB0
2589
28FC
AD82
AC79
AC19
AC96
AC09
2789
2A23
2E35
9E50
B0C2
2953
2DB5
2EBB
A0D3
B129
AA86
9BB7
30C3
3530
B0B5
B163
9473
202B
9AC2
A6F7
1997
A90C
2F25
A8BF
A6C0
180F
9896
2CFF
AC27
2483
1719
2771
2552
2101
AB87
2502
2D30
2977
2C03
194C
1CBB
19D5
2C11
22E2
A691
ADA3
AECE
2597
2B27
2D89
B077
9BD6
2696
3030
A159
2BFA
26C1
20C1
2BF6
24F2
1B44
341C
B054
B1A4
B175
99F8
3516
3711
3284
3700
37D8
32C5
0B5F
2C92
A994
34D5
366B
AD8D
B1D8
B11D
B4B4
35E2
339C
AB3E
AE25
AFE6
2BD2
2D3F
3044
AF36
AC55
A9C9
2FC2
315A
A664
302D
A8E3
348D
36A2
2D62
B0F8
B630
3709
36A3
340F
2DD7
2734
381C
3849
35D8
32D6
B0ED
341A
3442
30A4
35D7
2724
A5A1
2496
ACD0
0E57
A814
30CD
3260
A9E6
AA80
209E
31AC
1527
B1A4
B07F
B029
3087
A8B2
B275
B0F7
2904
9DEC
3020
2D1A
2C0C
ADB7
AD3F
AF27
B522
B299
19DB
2F70
3101
AFDA
B713
2B93
340F
2E35
2A35
AF01
368F
350A
308B
3434
3399
2816
34EC
313C
3494
3406
2661
2A97
AF29
B04D
A6E4
28E7
2B85
AD83
AF11
A592
9AA6
A3F8
A55B
25C1
2D96
B3D7
B26E
AECD
250F
300B
2AF5
AE56
ACC4
AF18
209C
AABA
AACA
AE65
2572
2EBC
AC95
AC4A
25EC
ADC7
AB16
B5CF
AD18
2CF9
A973
B34B
B9BE
B599
AE2F
93A9
AD38
B590
B602
B2EC
250D
30A9
A582
1841
2C80
A237
2D6C
2113
A7D0
A33F
26AC
A7F6
A85D
2DC2
A89D
28E5
A3AF
9F16
14D1
29D5
A8CB
28C6
A858
2845
2E0E
2EC9
2C23
AA02
AD43
A014
A728
A8DE
B17B
B0B2
28E6
B017
B538
B08F
B078
A57D
B477
B5F5
B22F
A613
28F8
29E4
272B
B3D7
2A5F
2D35
2C72
334A
25B7
2140
AB23
9C7F
24EF
1E31
A7B5
ACA8
A94B
2C4B
2680
A433
9C29
AC3E
AACD
272A
2C07
9B0B
A8DD
1D4D
A9F5
2D33
9990
287B
A520
2D11
2CFB
267F
1DCB
2863
A9A4
2B9E
28F6
2DF9
2815
B02D
B19E
2986
A9FC
A51F
ADC7
267C
1318
A3B1
AB72
27A9
2A39
2E30
AB2A
AF9C
A786
A8DF
2D04
2DCB
ADCD
A9FB
AD9F
A31A
A460
A8BC
AB6E
2688
A90E
264C
2AC1
2E44
219F
2C6C
AE01
28DD
2F5E
2FA8
B048
ACC1
AE68
2AAC
A16D
ABDD
29DE
2C7D
2CE3
29B3
2BA6
2873
9566
AA28
2B85
3162
B0BF
1F86
A22A
330A
28F8
ACC1
ABA0
B01B
2B76
2F3B
A6A5
22AD
B108
ABF4
2328
2276
B003
9CCA
AB02
B178
B034
A809
3344
AA4A
2A00
29A7
3052
3544
2C91
312A
2F7F
32FE
3022
AA00
3212
A7DC
AC8D
2639
B181
B1BE
A41C
B22F
283F
23A7
A9B6
B075
AF66
B04D
ACAD
2551
AFBE
9441
B1BB
AC22
2DAA
ADA8
3505
B179
B419
B0B8
2D35
3480
AA26
2D88
2ABC
A5CF
AF44
280A
2CFE
2F44
AD3A
ACAA
30BA
2C2F
A8A9
266E
AC25
31B1
ACF9
2C3C
ACA1
2A6C
3091
ABC4
B12D
B46A
B208
AF0E
AC49
2CAC
9423
AC80
A6EB
B03C
1D1B
8853
AD56
A48C
AE97
A6F2
A2CC
AD3F
301E
ACE7
25DF
306C
2DBE
316D
B053
AEE7
272F
2E79
1F27
A437
ABE7
A9AD
ACA8
2E9E
2D9F
A66F
B279
A545
3416
3635
9C31
B2BB
2E5A
2FF7
3003
B042
B254
ADC7
2EBB
2DF5
B052
B59B
B3F6
2E43
330D
2E09
A5D4
2EEA
AC26
AC0D
31E1
2D59
3365
AECB
AF6A
1734
2CD4
315B
333E
B02E
A858
B37F
AD9C
38A3
33B9
32F2
2A69
A961
29E7
27E7
A88D
A9A6
2AB1
9D08
A812
A7CE
2620
A8E5
AD37
B411
AC38
2C4C
A9AA
A38C
B324
ADC4
2EE3
28E0
9BBB
2BE6
20BB
B047
9A7B
A97D
1EED
1814
AA4B
AD10
2D71
2040
ACCC
2C3A
AB55
25F9
2D05
A564
2B93
245D
2791
1993
92E2
9C7E
2F62
AEE7
A544
2D33
ADC5
AB04
337E
3592
306B
314A
28C7
2639
A33E
31B9
34BA
2AC8
26B6
B195
A46E
2652
2731
306E
306C
31A8
A903
B359
30F8
3172
24EC
AC66
B2ED
A99D
A5CF
21C7
2D82
2CC4
1B22
ACA7
2571
2CE8
2819
A5F4
AD3C
A3C6
2B82
A45E
2E0B
AF3D
ADD9
AAC7
AAE2
B01C
3051
2DF7
A5F6
2173
1A4C
A5F2
AA1D
2687
A5A6
30AC
99BA
2C79
AD3D
2DAD
2C74
2C80
ABF2
A41C
A9B2
2D4A
2D60
AC27
A9D0
AE01
B096
9C69
2C1A
A3E5
2902
ADA0
B25E
A9E6
B13F
B36B
B4BF
B5FE
B2F9
AE14
B38B
B493
B2F8
2B6A
ACBA
16B1
B6C6
B859
B243
A478
34C1
A5B1
AD62
B280
309A
3466
AE55
A40D
2DD2
317D
2B00
B2E2
AC50
3626
246F
A84E
B549
2B7B
34FF
B256
AF97
B6CD
203A
B1B3
B56E
B264
AC82
287F
288F
B4DB
AB1A
2BC8
1287
2CDA
3073
1DB0
116A
B035
2B0C
3458
2931
2980
AF88
289E
3258
23A3
1A14
2889
2EA7
A331
A6EB
B20D
2A9D
234A
A8B5
A843
A78F
27C7
AC25
A4BD
AAEE
ADAF
254A
B1DE
AE02
A74C
ADB2
AB6C
B143
A864
2A70
A1B2
2425
ADC5
29C9
2F02
256A
B09D
B106
AA58
ACC0
2718
A971
A371
21D6
AB1D
AB09
9D2D
AD64
A533
A4EA
2A3C
A2D3
23BE
29B0
AC89
2E04
24F2
AB02
24CD
2915
29E2
296C
A8C4
AE75
290D
23B5
32D1
3252
AD3A
B06D
2B8E
3704
33FC
25AD
B022
3105
2E3B
30BB
3176
3338
A7EB
3463
286A
B24B
B0FD
280B
375B
34CA
20D3
B3BB
A6A8
2857
2B1F
260D
2891
29A1
2B82
2D34
A334
AD6B
A901
A5C3
30DE
9EA8
A8DD
AC9B
AEA8
2EF4
30BE
2AA9
2860
28C3
AB4C
A451
A4C8
24BC
23F4
98DA
2D03
9EAD
AA8A
1E5E
AF58
3174
A57A
AC27
AC1A
AC09
A232
28D5
309D
2CA4
AB3B
AF3E
1FAE
2CA4
AA2B
A457
195A
AEE1
29BF
A9BB
ADBA
A8E6
2049
30BB
24E2
ADEF
2EDA
A90B
2D6A
281F
A628
949A
1E54
AD31
2AFC
23F4
232A
1F35
B082
A3C7
2892
AC1D
A049
3091
2E28
213D
96F1
24AC
2B32
AD5F
2A04
B1AD
98FD
B2F1
2DB6
2EEF
B0B3
B003
A6D2
3561
2FC1
AC9B
B00A
3222
AC71
A1B0
B0D3
AF2E
320A
31CC
B35C
B405
B2C7
35A0
AE75
B694
B19D
B007
3479
3199
A3DE
AEA2
2FF2
32E3
9FDC
33A0
3641
357A
B6E8
B40D
310D
35DB
3411
313B
A6AB
2BDD
A5E9
A7A1
2CCD
AEB3
ADBB
2EAD
AC39
2ED2
AF86
AF74
24D0
AFDC
2701
AFEC
B086
AF10
B0E6
2B4F
2B1C
A808
2B50
20E7
1D1D
3195
31BF
A8AF
2A7A
AB83
B0FC
2CC7
2CB4
3108
B25D
B1F9
AD02
2A05
2C2F
B1E2
B754
B1EC
B112
AC3E
AEF9
B0EB
B430
ADAE
B4D6
0AEA
2CD3
AC8D
2B5C
B03E
AD10
AA9A
B186
AE3A
B140
B40B
B57E
2D50
33A9
2BF6
B432
B3AA
28C0
3699
34F8
B1C6
B3CA
22BC
30C3
A79C
A870
A082
2EC7
A9BF
AF9A
2464
302F
30E3
B0F6
AC63
AC4B
3084
2411
B04E
2A30
B4FE
A52D
AE0D
B14A
AEC5
A527
ACE4
B401
B434
B4E2
A756
2541
1BBE
285E
2FDA
A6C2
AA6D
26A5
B011
2CD5
2CBD
308F
2B42
ADDC
243D
B394
3321
2A69
A644
A801
AFE7
2B0B
2111
2FBE
2F54
2F9B
AC3A
A40C
32B8
35A0
B0EC
B14B
305A
32C1
348E
B6F9
B489
A42A
1945
2A8E
B929
B885
B354
B498
B888
B633
B92F
B8CE
BA27
B6C3
2ED5
AE02
2850
2823
2C49
1084
26B2
253B
2D4C
28EE
AB44
2E80
AD48
1EE8
ACF0
96B6
2E39
2C73
A182
AD51
A94A
1CF9
2D45
2CAF
204C
AB06
B190
260C
305E
2DC7
B451
B7B6
B391
26AC
B0F2
B454
AE96
B32D
B366
3068
B16D
B417
B524
B10C
23F6
215C
30CB
2DF5
3356
2F8A
AC28
A4E9
A74C
2E6B
A58C
A1C8
AC41
221D
2B7F
3084
AA95
AA01
A97A
2C08
28D7
25BE
9F79
9EBF
ACAC
2679
A51B
2D04
2B2C
ADD1
26EF
2EBC
A5E6
A9A5
AD94
AB2E
2C2B
2BBA
AC1D
A9BF
A9E4
28A4
336B
AEB8
1A54
A986
2C45
2D60
AFA3
A72A
2C41
B1E5
A50F
2450
A4E4
A8E1
1A8C
AAD8
A140
AAF6
2C0F
276E
AB7F
A80F
2515
25BB
29E4
A545
AA9E
29D5
ACCD
29D3
2757
A875
A146
2EE3
A899
309B
AF97
AF65
A5BF
2AFB
ADB8
ACF1
2C37
2D05
A3A3
A322
281F
3212
304A
297A
ADB3
9E19
301B
B099
A5C5
B121
28F4
2763
2C8C
3194
2E21
3192
2014
3033
9B1B
2B76
2C72
A06A
B0F7
B0A8
A967
285A
31FD
AEA3
1A93
AE1B
AD81
2C41
2819
2F4A
A76D
AAB7
AC98
AA5D
2B2A
2393
B1ED
A0A4
AE4D
389D
2D80
9661
A2AD
A394
16A7
2F85
AC4C
2921
AADE
2C00
2559
ACC6
A2DA
A925
1CD0
2B50
A83E
3060
2423
AD68
AA29
2E47
2A2D
AD69
ADEB
2221
20B3
AB8C
905A
AC2C
2A78
AC23
AAF9
A914
ACDA
2D15
2E1C
A6F0
2855
26EA
9B45
A98A
2C06
A7DA
27CA
1ED8
2C78
22C9
2D4C
AC71
AD35
AB07
A0FB
A6D9
B20D
2F55
26A4
2BD1
28A4
1F1B
30CD
2CEE
2816
2B93
2CA3
A4BB
AC2D
A2FC
2DC5
184F
21B5
9BA6
ABA9
B037
AF3B
B8D1
BB04
B6EB
3570
3878
BA2E
B906
B37A
A7E8
A0A3
B033
2034
2432
19A5
B639
2DFD
AD1C
3022
B065
B729
2CF1
2F15
208E
B6EB
B4B3
B098
B0A8
2437
B376
B930
348D
AAAE
B4EC
B78D
B6AB
378C
2137
33C4
3250
30F7
3415
3110
29BC
3819
3824
3042
3061
2C7F
3525
3AC9
A540
2DC0
A984
A33F
2FD5
AD7E
ADFF
2784
A8C5
A914
A969
B2E1
2A9D
ACB6
A86D
AD25
AC12
2D62
B0D2
AE23
A15A
ADF0
337F
30B4
3027
1843
2F65
3424
B02B
9E19
A047
AF86
AFF8
B380
B61B
A0E3
29C3
3088
9D93
AC3D
A3EF
2E41
A6BB
26B3
314E
23C1
2F87
3502
337C
33F0
A9A8
AA8A
18BC
A028
AE5D
AC86
2A06
ACB1
AA4A
A843
20F3
2FB8
30E4
2B04
2A05
AE6B
B0EB
A879
2E99
3048
2CD9
A509
1E72
18C6
2A2A
A74A
2D1F
28EB
AB42
AE0B
2C92
9870
B006
A7D3
9B9D
3221
A9C8
24BD
AFE8
2946
2CC6
A633
A95B
2D2A
3494
2C38
A12D
2ED3
3462
34BF
AB0A
2AD4
A2D3
2730
A6CC
9DB9
AB0E
AC57
A93D
AAD2
2F61
A71B
264D
A0F3
2973
A91C
185A
2991
2667
2270
A553
A587
24A2
135F
2BC2
B031
ADDC
AB0A
2916
AF38
2BD6
A11F
14A7
AC31
9604
2CEF
2BA0
2914
ADE0
2757
A18E
ACAF
B667
AC48
3168
B335
B164
2AEC
3034
30AE
A8FA
2AE8
2CAA
A52C
A32F
2897
A678
A914
A9FE
A863
A8A8
A467
AF67
9992
A328
2840
2F33
246D
AB47
A241
AD61
2946
2D09
2A6F
AD37
A6FE
AD0E
A8FB
2DFD
24C6
AE23
2E2F
2535
2F96
A0D1
A925
AF69
A87F
906F
AD5A
944F
22AD
21E9
1D4A
A0BB
2C6A
2BDB
2A83
24BD
3125
A1DC
1F3B
A20A
9CF9
1C2F
AF7B
2E67
2F3D
A03E
2BEA
2A02
2453
2CB8
A87F
A8DE
2952
9D98
9AC5
282B
26FF
2A64
3073
9F25
2AC1
AC0B
1E19
AA0D
214D
3026
ADF9
A630
28D0
AC68
A873
AA88
267F
A2E7
2A8E
A726
A93A
2CF5
A6F1
AFD5
A375
3085
29C1
265F
2C28
2C8F
AF05
2C1C
25A0
2D9D
A59A
2CC6
27E2
2D2B
2D11
1EE5
B04B
2580
9E46
A6A1
2C0B
2FE3
A833
9E9E
2C82
2DDF
2BE7
2C14
24F4
2E07
ACDB
B021
B040
B19F
A865
3009
ABBB
2C22
34B3
2DDD
A677
9F05
331E
34A3
33D7
ACD3
AA98
AA8C
B02F
2B36
2C35
335A
A309
33A4
31B9
3396
30B2
AC9A
AC3B
ACC6
AFD0
B22A
A64C
AB9D
2064
AE34
ACD4
2FD3
3114
295D
9844
2DDF
31A5
32CD
2DF2
2DA2
2C2C
2E87
18F6
2A9F
AD48
AF8E
2C5A
29B6
3113
A38A
2188
2C4B
287C
A1B8
2E36
2D8D
AF2C
AFB1
AB3E
A9BD
A882
AC0E
AC84
2AF9
25E4
AB43
2AF8
AE39
A592
9FE1
3012
2A9C
304E
2418
AD78
2D73
AEF1
AD3B
0B03
AF3A
ACDD
301D
23EC
A1EB
AF66
208E
1AA2
2DB2
2E17
2477
A8EE
ACAA
A80A
2CC3
AE14
AE06
3062
2CE8
B659
B39B
2EA5
A952
31A7
3166
1DC7
2D1C
ACD4
AFD9
B174
2EF2
2FD3
2D2E
AD55
B1AE
B096
B5A8
2E0F
ACCF
AD17
AF14
B259
A792
9D45
9846
212C
2F13
AD28
2CC3
2856
23BF
AD55
296A
319E
AB65
2368
A89A
AE4C
ADD4
AA76
AF2C
2767
20B6
2579
224B
2C3E
1CFC
A262
2F58
1D42
AAF2
2760
A996
296D
A1FF
28DF
24B8
2C62
2ED5
A78A
25BC
1BFA
B058
2994
B0D4
21C8
2996
2004
A0A6
2F84
292F
AE33
AB03
AE8D
A5D8
3425
A8C8
B314
28DB
30E9
35CF
3410
2DD6
2D4C
24E3
A572
AEBA
34A8
3068
B278
B4AF
B4B5
B270
B2F5
B68B
B4B7
26C7
A412
A32E
AA34
283F
27A1
AA43
AD11
AB2E
265D
9BEA
A399
ACDD
ACE9
AEA0
9733
291D
2F1E
0EAF
25F4
AC1C
242D
2247
AA21
2424
2E0E
2C32
30A5
A675
A415
2C94
2C8C
AC30
AF52
A35B
A3D4
300E
2CB3
297D
2ADA
2512
A6EC
A95F
A846
9DDD
21C9
2451
2BDB
A83E
2339
2FDF
27D4
2D7E
A948
2A59
2F62
35A3
36E5
35DC
A830
A742
377C
3456
30DD
AE9D
2C31
B193
2F7D
2937
B5EB
2AD0
ACDC
34A4
3712
9CF6
A874
291E
2D0F
2DE0
306A
986A
2F9C
2C10
32C9
3287
2D59
321D
30E6
32AF
275F
2F3C
B45C
AEF4
B207
3190
2AA3
AFE2
ADE4
2F4A
2D20
31B6
2888
2E87
2C1E
AF7D
AF42
291E
A60B
2BB8
2270
2CA0
2981
314A
AD31
AE7A
2DF4
33CB
2F13
1EDF
2945
AAE5
1889
A36C
2499
25D3
AC32
AC8E
B03C
AEEC
2DAD
AE3F
2A3F
3095
A0C0
B096
A115
28D7
2D94
263E
ACCE
AB92
25A1
2C52
B223
AE4D
2C08
2D1D
3207
29A8
2445
B0C3
ACF6
A407
A789
A4C9
28F4
27B6
27CB
AA6A
A75D
ACEC
3230
3200
A6F1
2C59
A4E5
9F4A
A7B1
AC9C
AE4C
2896
ABC3
1C52
25E8
A918
AD46
33DE
2AEE
B51E
B411
2BC1
A144
B4FF
B253
3084
3165
B143
B05B
AF45
313B
2FE1
2D63
3298
B359
B64A
AD0B
3019
B1E4
B599
B097
A151
27B9
A921
2757
2353
2222
A1D8
30AF
30D3
2D3C
2EF0
AF68
261F
9847
AC85
2E34
ACCB
ADA8
A94F
A45B
1FB1
AC9D
B048
B048
A838
9D54
AB04
AD45
A82E
A76E
2CEE
2BD6
2C87
2E92
26F5
AA28
ADCD
A134
A9B3
A83F
25DF
3232
2F5E
259A
2511
AE51
2759
2213
2631
A8C7
A962
224D
26C4
27D4
AEC6
2AB7
2675
28DB
AB86
A68B
1C4C
A3FF
294E
2A58
2EB6
2BA8
A7E2
A4C3
AC0F
2AF1
264D
25F9
AC11
2C7F
AC95
AA87
AE85
ADF6
252D
2C7B
2291
B1A5
AE09
B12E
A570
A10A
AC03
AC8B
B05A
A901
AE2D
2C49
3416
2FB6
2C7D
25E0
312F
AB40
2ED9
AC2D
31FE
AAB3
25AD
B059
B7ED
B62A
29C1
AFB5
B8A0
B74E
B587
98BC
AD35
A404
314D
38B9
301B
3466
317C
3767
3C36
B201
32D3
38B2
3B1B
3C3F
AD1C
29BA
2DE9
AA2F
2FAE
2822
2BA1
301B
29D1
2DC0
AF93
ACC5
295F
AE58
2636
2149
A083
2869
AE43
A16A
20DF
2E68
3064
2E17
156B
27C1
2F8E
A931
A8E0
8E70
2B1A
A5B4
A066
2D71
A757
2E85
33AC
3250
2898
A9CB
A3C8
24BC
2C0B
AEDF
B21E
AACD
A7E7
AF6D
B3ED
B339
B011
1F78
AFAE
B7DB
B03E
A051
24A8
B492
AF06
B021
B102
A577
A15D
236D
3524
B490
ADDF
B15E
30E9
3263
B293
B4FC
1333
B164
B287
ABE5
2180
B0E6
A75E
ADEC
30E3
34D6
2D4D
AC7F
B00A
2E9A
1651
2C75
B268
ADEA
3238
2C54
B085
A468
A072
A770
ABCC
AD1C
A8BC
B319
29DD
2C6F
AA6B
3086
27E2
1C66
A775
B0C4
AB48
2C69
2FE9
ADBA
AA11
A60E
A28C
2A2D
AE17
2C6F
2E17
2916
A0A2
A9DB
AB08
2965
2CDB
B4CD
B442
2DA6
3718
338E
AE44
32C9
3151
3799
320B
29FC
9C27
352F
3328
ACEE
B48A
B789
A9EA
B5EA
B6D2
B139
B473
B4BB
AD97
35AA
A8EE
2D09
2DF8
2B40
20DB
2D60
B01B
A685
A717
A6CD
2BCC
2258
A2BD
A93D
23C4
AD40
A643
2675
A423
9D55
200E
2DD4
2D1A
2F94
A811
ACB0
A7E1
2D3F
30C3
A4B6
2E0A
35E7
3558
B144
2A84
AACF
3492
3358
ACF1
295A
B021
B5C1
AF90
A964
15A0
B188
B16B
A4A6
324A
2C0F
A167
2017
8D9F
A8AE
2E47
28C6
AF64
AFCD
1F73
AA75
2B69
A98A
AF1B
2A3B
AAE3
AA9E
2D1C
2C4C
25D5
2570
2A97
2A9C
2E96
ABDE
A0D2
2301
2EE6
2CDD
A4A5
26D1
9C3A
9D1B
1DE2
A853
A6B6
2A45
2832
250E
A8B8
21CD
AC76
9EE0
28CD
AE9C
2421
A9C1
AC2C
2F7A
273D
AF56
2515
2D6F
AE07
A96A
2D67
AD7E
2D97
984E
2814
21C4
2CF8
243F
ADD7
A89D
2BBC
A775
30A0
AE25
ADB0
A3E3
AC22
2EB2
A8FC
A76A
AF35
211F
2870
AC8E
B0A5
ACFE
26E0
2D5A
20D7
2F33
2F68
9E36
2F56
3178
A491
9C43
B292
B11D
AFF4
2A21
2F49
28F9
2D30
2CDA
2C91
277A
2B47
213A
A558
B326
227E
2D36
331B
314F
2E78
AC8F
2C35
2CF8
2710
2E5B
2984
2DD5
A5A3
9439
2C17
A0FE
AB3B
AE61
AFFB
AA8F
B11B
2A4C
22E2
1D7A
A90C
284B
2427
27CC
22FA
162C
9DAF
21AC
28BD
9EE8
2A79
A009
29CC
18B6
2602
234F
A640
A170
A862
2B3F
1D6D
96F8
2141
A82A
2861
24F4
26E1
A47E
2729
2B3F
A987
A3CD
A835
A6DC
22E4
A937
25E9
A78E
20B7
95C2
A5CB
A420
28B0
AB6E
227D
2611
A916
A31E
A813
A843
200D
28C8
A600
297D
A263
268B
281D
290D
9F49
A7A3
A818
24E9
A5A9
A65B
26BC
A8B6
276B
A9F7
2B91
2210
0560
A86B
2479
AB9E
2E14
2C4E
2CD7
3020
A6E8
ACC7
A6B5
A5D2
9E80
28AB
AD97
A40D
26C4
255C
9F7D
A065
AAEF
A213
1C63
231E
1596
A487
A98E
A9CB
9DA6
971C
2A28
2422
2A90
AA26
A8C4
2B4E
250B
2714
2015
184C
9872
25EF
27E3
9461
2939
21E0
2A60
257A
2C06
2C38
261E
1DA1
240E
A151
919D
260F
A6CB
A5B3
A79C
2A1C
1AB4
24A5
A2A8
2255
91A9
23A3
24C8
22F4
A5E2
A4B5
2607
A417
25A3
27A4
9B0C
9589
9C14
97B4
A96E
1B10
210F
A274
A569
0E70
2A1D
22EB
A959
A17D
A05C
A36B
2927
A32B
240B
1155
2B91
A42E
221B
1A2E
A0A9
2546
A183
98BA
A287
198A
8E79
1EA8
2878
949E
A0C1
1D23
283B
190E
1C2A
241F
863A
98FD
1AD2
8AEA
A5E7
9DFA
AD19
1B6B
A19D
2B30
A0EC
A827
A0F4
2771
26BE
15D6
A375
1F6C
A52B
A311
25E7
1DEB
A82B
A4DD
A715
A989
2715
294D
A6CB
A371
A2B9
2440
9F93
2501
2428
A87B
262B
A08C
25B9
9FA5
A877
A4D0
1B18
A821
2A02
A8CB
AC4C
28EE
21F1
A6BA
21E0
A7B0
A413
A921
2915
1DFD
28F0
1B63
A677
1F1C
26F5
95D4
A7C9
227D
A8EA
A2E7
9907
26EA
2714
9E6D
A6D8
19ED
1C03
25BC
AAF7
9DDD
A873
A4F4
2112
1CDC
AAAC
9A02
9905
114F
A4ED
2407
2182
A147
2063
25B0
A655
254C
A5A5
0A42
276D
9CDB
2A85
295F
AA2E
A580
98CC
14EA
A83C
9B60
9088
2132
A3CB
26F8
A9C9
A1C9
238F
A1E5
A72B
A155
9A35
26D0
261E
235C
90C7
A868
23F8
A07A
A77E
8E29
28FF
9E4D
1B2F
2926
1EB0
A2E0
A8D3
241B
96B9
A974
225A
29FA
A2ED
262C
94AD
A8C6
2AF7
98B6
1A0A
AC57
156C
214A
2A9F
1AE2
A4E7
2692
A3A1
A452
283C
1928
27A3
1244
2731
A431
2082
A5D6
289F
A430
1FC2
29EB
A1F6
A635
9EB5
A5B6
2108
A9C1
2A60
A296
AA64
1D1C
27D7
238B
1F31
9C96
9F0C
A833
28AA
2372
A48E
1852
19AA
2144
A960
262D
A78A
A4B5
28A6
A351
A26A
9D1D
296C
A5DA
2928
2961
A6F1
26F5
A8A8
A345
2A4B
25F6
1FC3
1F32
25F4
A584
1B68
93AF
25D1
A4D8
A7EF
A8B7
A7C7
A0DE
1E02
1F63
9C6E
23AA
2521
A277
26E0
2B42
9DF4
9B1D
A06A
9716
195A
9BC8
A1F2
98BE
9CA6
AA80
2A74
AB24
A93A
1225
9E66
A1DE
29B9
A163
9EFF
28CB
AB7F
2098
180E
2925
9EDD
A42E
2838
2556
26B0
2498
244E
A4D0
A912
A9F7
255C
14B2
24CE
9E70
1947
AA58
1EB0
A891
A07F
A6C8
9DD5
261D
A1E3
2436
29B7
A1F3
A829
1CB5
AB27
A9C3
98BB
997A
A81F
2169
20A8
1D6A
2654
A70A
A495
29DE
2880
24C1
9C23
2745
A65A
A62E
A6E3
12DB
A060
2886
20F5
2CC3
2CB2
2CBC
A6A8
8F42
2749
281A
A47F
2879
A8F2
2A62
2D39
20F1
9455
A98B
2C0F
25BA
2597
AC54
2399
A4CE
A8F1
26DB
A5D4
A671
25A5
220C
2984
A0E5
280E
AB4A
A90D
AB71
2875
AA99
2643
9846
A93A
A87A
A8A4
20C4
24B4
26A0
27C5
1A85
A4B0
2626
2311
A3F4
A7BE
1CB0
1BAE
A4A6
A303
8D0C
A16E
9FD6
21D3
28EC
21FA
AA4A
A7ED
A481
1C5E
AA24
A317
1E53
24BA
AACC
21C0
2670
9EB9
2876
9E8B
245C
289A
A822
2A04
27F1
A685
A902
A876
822A
A41F
A36B
A515
9147
9948
A6B5
A832
26C0
296D
245E
26E6
9815
A63E
1E7A
181D
2A65
A5E6
25FC
2B4D
9EB8
219A
2164
2825
A656
9E38
A7FA
A313
A884
26DA
298B
A364
2840
2692
2871
2564
9FB2
251E
A498
2393
2821
A4E8
27CA
A3F7
A1AC
28AB
A91A
A8C8
21A6
28A9
A8BC
A4D3
1C28
A850
2669
9F82
A692
A028
A0CA
242C
A668
1654
A8F4
26DC
2C97
249C
1D34
1509
A307
9403
A048
2406
29E6
2541
25B3
AAD5
9981
A40C
9959
26C9
1FA1
20FC
2812
2615
A530
A58C
AA74
1D0B
AC61
A93E
A4ED
252D
2AD1
243B
A844
28D1
A5C0
265A
A2E2
A4CB
1D74
2081
A9B1
A4FD
2608
A9E7
98A6
2805
2514
1374
2BDD
2BFA
A62A
A203
270B
2D5A
2912
A894
AC9E
2A5F
2C28
20EE
25A4
AC56
1118
2294
26DD
A7E2
AA35
28F0
A364
A0BF
279E
88B0
A0CC
25AA
27B8
2A73
1C03
2116
1C14
A56C
1E66
2450
2647
AA43
AC15
A110
18AE
2664
9A60
240A
28F4
A685
21F6
1E94
298B
A42A
A07C
1D98
A45F
227E
27FC
25B7
9A55
A444
187B
2071
23A3
1BD7
A82B
1EEB
A9D2
A8B2
272F
9C49
A310
A072
228A
A2AA
9F44
A468
9925
1E33
288B
AA3C
24EA
A54D
A641
A14E
19DF
239B
2231
2593
A2BB
1C44
206F
9752
A87F
9C24
AB37
2904
A4F8
A41A
A6C6
28DD
A45B
1CDC
24BA
1D1C
A2AD
AAED
A477
267B
2E36
2C08
2953
1FFD
9ECE
2C78
2C04
9B9E
A519
2851
29D6
119A
A74F
26D0
2B88
2953
2893
A48D
A733
9D75
28F0
A4EB
9D12
18DF
2A22
9849
9F80
9CE5
AB24
A0DB
A871
281B
2ACC
A447
A9A9
1787
A7D6
A17C
A07F
27AB
A4E1
1C15
1E31
9BF5
2994
A632
2603
1F56
A8C9
2033
25C6
26F8
98ED
281E
A671
29B1
23DC
A0D0
158C
28DF
AA07
2469
9850
1CDC
A7F0
2470
A460
A051
A38B
A00D
2AD1
A52B
A49F
9CF4
2791
A199
2542
27FE
A6E8
A6D4
1329
26EF
27AB
A999
22E2
2441
9E47
9812
A61C
2535
2743
9E76
A204
A784
2C30
29E0
A3EA
2052
A68A
9272
9B79
A726
A3A5
A2C7
9B01
28DC
993F
A2F0
A4EE
2AE2
2873
2725
A889
25C6
2CCB
2532
2C26
2B26
2998
9B8F
2A43
2C55
2A5A
A3AB
A575
9F94
AACD
A46A
A935
20A1
A5B9
A7F6
24C4
2AD6
1962
1895
A463
2455
144A
AD39
A39D
A4BA
A9F5
2C33
25F0
2616
28FC
2482
AC78
1413
22E8
A94E
2106
A891
A993
9CD0
2774
286B
A5F6
1D61
A746
289E
A1B4
A1C7
984F
25F2
A2B9
2A12
A00E
1379
2AD6
A3B7
27A3
2754
15F9
1C28
937B
A808
206B
9E0B
27BF
1A29
2520
9E7C
280B
A66E
283F
A87E
A80E
AC13
A095
AB2C
233A
18FD
221B
90F7
A206
9E80
29A1
A852
A62E
2002
AC0D
A4BE
A787
A157
A9A5
262F
258A
A2E9
9C87
2474
24B5
2A60
A9D8
A90E
A67E
27C9
1BA1
AA3D
A745
980D
94B7
A293
28D0
27AE
2858
A372
2981
17BC
244E
A3BD
AA26
A12A
A4E1
2568
2217
A84C
1C77
9C6E
209D
A67F
1F07
AAA0
A279
20BD
A73D
A844
1A1E
24D2
A7A3
A23E
104D
1DA2
21E4
2763
9837
1E41
A986
26ED
AAA7
A244
286C
274D
2A10
20F4
A5C6
A677
266A
26FA
AAA8
268A
15E3
1C76
AD08
A6C9
A72C
2B67
A833
AB88
22D9
2588
28AB
1FBC
ABA3
AA51
A173
247A
9E20
AB45
ACDF
AD3A
AF6C
A590
A4A8
A7E2
A02F
A850
9A38
A731
1CAF
AA12
94BA
238D
A7D8
2592
A803
A479
AAE8
254D
A32B
2BC3
240E
2401
2510
9FE1
A701
9F56
1D01
25B7
AA4F
A9B9
A441
A526
A9E1
AB6F
AC71
A46A
9CEB
9C47
A641
9D82
20E7
28FB
243E
A945
A837
A697
9CEF
1B18
29CF
2B40
A49C
A425
2317
27DB
A668
A641
2216
A8A0
2100
1EF8
A6C0
255C
20DF
A482
2587
22D4
240E
1CF7
A500
1190
A905
240C
22F0
A46D
AB5F
24CF
2782
28E7
A7D3
93DB
A644
1CD2
A0BD
A1C3
2569
A7C8
252C
A9CE
2C31
22B8
A47D
27E2
93F6
1E2C
2435
A0AD
2001
236B
2010
A1A6
A34D
2874
26D8
9DC3
A5BA
A8B5
2003
1A21
A36B
A860
27D5
A43F
A617
1DFB
A687
2AAA
A907
2865
223E
AA49
A594
2307
1A92
27A8
19AC
2242
A73D
28DE
A705
20B5
185B
9BD4
A80F
A892
98C0
2BBB
2463
A832
8B81
206C
9580
2396
A4D6
1B8C
A79D
AA91
280A
2803
241C
243D
A5D7
9D15
10C2
2217
2188
24E5
A8FC
AA0A
A212
937B
A913
A84D
1285
1CD6
A9F6
2458
A0FE
246E
A7D1
ABE5
2C32
A875
27F6
A991
2524
228C
8C96
BBE6
23B3
2252
A517
A56F
A8AD
A457
A285
A348
AAAE
A349
998C
1D66
1C53
0F74
A829
273D
AB2A
A566
A274
21CA
96E2
24E3
220B
2315
2827
A013
ACBF
2326
A84B
221D
A825
A83B
A9F0
A526
A903
AA5B
2539
A2E1
243E
288F
A95B
A5BE
2736
259E
A90C
245B
A095
A553
242B
9A5B
A284
2392
190C
298C
2B59
0853
1AD2
24C9
29E0
1CD2
A7A6
1577
27C3
208D
207A
A7C3
2CCF
2773
2450
1DE8
A318
A5B9
2563
255D
A8DC
30A9
1532
228A
2C62
31E0
2FDD
2CD4
2ECD
277A
2C6D
2CB5
2AEF
260B
277A
2BD2
30C3
2A2D
2C93
2B30
2B99
2442
A2C3
A849
A448
283E
2430
2C12
2A77
2C50
2D52
AC3C
15D0
21CB
A899
2ABE
AD0C
283B
263C
2978
282F
AA17
24EE
A6ED
A9EF
28D1
AE32
AABC
A324
A920
A89D
21CA
A90A
2520
29F9
AA78
A890
241A
26B3
A871
AC47
A472
286D
A226
24B0
A69C
A50A
2183
2819
1B19
ACAB
2763
A9CF
A11A
A76F
A525
2980
A822
1E19
0E92
A5FA
23DF
21C7
1D45
2331
A80B
24BC
28CF
2178
21B8
A3ED
21BC
2BE8
21E1
2A8B
A263
2717
2C8A
2C5E
1BCC
A47C
1EEE
99AB
2201
A413
A782
A5DB
20EF
2072
2638
1A0D
20A8
2798
2275
A3E6
A3FE
246C
1CDC
AA32
955C
A491
9538
A4E4
2914
A8EC
A89A
2947
2948
1F4C
A324
2B4F
1405
2945
2168
21CE
27CF
27B5
A3BC
2B7A
A11C
A40F
1E59
2904
A55D
A99D
A697
A3A8
24C5
A3C8
1CB1
A9C0
A867
27CC
2040
A927
1D60
9EF8
2426
2D0B
A151
1E9F
2BF1
20A3
A3AB
270A
A4B9
27F5
96CB
23FC
0925
0757
A820
2230
8E4B
A90C
180A
21A0
28B3
A690
A1C4
A71E
2A9C
A3BC
9CCF
A614
ABD1
2405
269D
1F66
27A0
A6FA
29BF
A184
2C71
28BC
A720
2429
A890
A9C3
AA7D
A38B
24BA
28ED
A59F
24BA
2BD2
273A
0C4F
A56D
A936
A109
2B66
1E5B
A22B
A34B
2B2D
250C
27BD
A05B
A7CE
29AA
24FC
A042
A936
A422
27B6
11E2
A48E
2863
1CC3
A5BE
A1B0
24FE
25C2
1CFB
AA6B
1895
298F
2B99
242B
26AB
9CEB
2255
9C6A
2902
A748
9D8A
A4FF
A0CF
A4B6
272D
276C
29C4
A497
9231
9F96
259B
2347
A8CA
A903
8EFB
A489
2980
A82E
A85C
A4E0
A388
A6FE
9900
87FF
9FA6
2851
2124
282E
9BD3
AA0D
264C
2D2F
1F4C
1912
2903
9EE0
A012
2401
261F
23C4
9CF6
A605
1C75
29A6
A945
AC32
2757
268D
1C7B
9F2E
AE6D
AC52
A736
A488
AC5A
2945
A84A
A444
A291
A09C
A19C
1986
29D4
26F0
A1A5
283D
A8F5
A0DB
A4B4
A0F0
2608
A633
A3E6
1522
20BE
266F
2B97
2847
2A6C
25B1
8C04
A541
A44F
285F
A95D
98C0
AD74
9BD7
A776
1FE4
AD38
226B
1D33
9448
A100
AB61
23AD
A096
2617
282F
A8F7
2558
2965
A409
A564
A50F
2848
2A8C
1C36
2C9B
1EB6
A90F
9BB7
026D
218C
9944
A7EE
A4B9
A58C
A830
A31D
A4DF
A4BB
258E
A134
28D6
1780
A75C
9075
21E7
A856
A859
A04A
A119
AD17
A8AF
1E79
A4B7
9166
A5F9
A80F
A8C7
206E
24CD
A200
2891
2880
17CB
A42B
1E5A
28E8
28D6
2A51
1106
21F2
241A
A895
26FA
28AC
24D5
A683
A1FB
A67A
A74A
9EE7
26ED
9A42
A648
A560
2739
AA35
A75C
AB80
A883
1CF8
90EC
A8C3
2A89
9D6F
246D
28D1
A3D8
A97C
A916
AB30
29CA
2013
A417
A247
A0B0
1B6A
A8C0
ACF4
A724
AA01
A241
A9DA
2159
ABA0
283D
963A
9A8A
A0FE
1BF1
2CBD
2BF5
A3D3
A4DE
A541
AA1D
9AF6
A5FE
2459
A9E1
284F
20B6
2494
9FBE
AA01
A4DE
29CB
2718
A65F
2841
97E1
27FF
9C2B
A833
A063
22F2
26DB
283B
9C89
A7E3
A88A
A8D5
269D
A8AF
29B9
A8E5
28EB
A097
A895
A702
ABA9
2995
2837
A721
A472
A585
27A4
203E
2456
A216
A637
A5A1
0F03
2805
293B
2B94
21C3
A837
A451
A9F0
2906
A89B
2825
2176
1FF9
A28F
29AB
A4A9
AAAB
1B23
9DEC
8CBC
A805
18DC
A8AF
1523
2306
1171
1DEE
26C1
A7CB
271F
19A5
9C92
2523
9E04
265A
9663
2723
0BE6
A9FD
A6E5
1418
A40A
2572
A404
235A
945F
A744
1DAC
2B12
1EEB
AA0A
188D
962E
AD2A
A9E0
2811
2378
2B39
A197
AA22
1CCC
11EE
2146
A850
A473
A2B0
205C
158A
AC68
94EC
28A2
25D4
A542
A830
267C
A996
1D5A
A787
A184
A517
A106
2203
A26B
A17C
A6DE
23C7
9C1A
25FE
2845
2C5E
A267
22D6
2837
299F
2643
262A
0CD1
2917
2DEB
2716
2840
2885
A08E
A922
2C34
2913
A504
2A50
2381
2490
2687
A952
A8D2
1CB4
2A0C
29D7
2065
9F85
294D
2C5E
2592
A92F
9EFB
28B4
2A5A
28DF
26A7
1E96
A785
299E
A871
26D1
A83F
A25A
206D
251F
ADE2
24B5
2324
A434
A108
A875
A74D
A9F1
24CA
AA00
A804
A230
9E11
2898
2597
A970
A38F
A603
A4CB
1F42
1861
2934
A1BD
1E01
279E
29FE
1E12
9F71
A723
A82A
9A4C
AC1A
A87C
2190
22B1
AC11
04FB
A66D
2A7C
2BF9
2949
A44C
AAD4
24AD
15DF
1FC1
218B
A18E
A85B
A043
AB0B
28CC
2728
1F3D
2697
26AF
A9DC
A788
20AB
A5C2
A623
9D97
1F5F
A443
A69E
AADC
A608
AA1B
2502
A2A6
A868
AAD4
A8C2
2385
A8F2
A613
AC6A
1F8E
A816
ACE4
AB4E
AA88
258E
20F7
9D8C
AA5C
2341
2B9E
9E01
279B
A69C
1996
A963
2070
A04C
2960
A4D6
2019
27FA
20A9
26BF
A0F8
A997
28AC
2437
A430
AABF
A461
260A
178F
2589
9FB6
A969
9DDA
A132
AA01
2066
A9E1
1C68
A0E2
9985
A894
A86D
AC3E
A77F
A98B
A891
A6A0
213C
A302
1867
A03F
A347
28D3
21B5
1F4E
24C6
297E
A733
27C3
1A7C
2DCE
A75B
24CD
2A8D
22FF
2A1B
A212
A807
960A
276E
252B
2765
2924
9D8E
1FCD
2424
AA36
A654
A894
2855
A6FB
A66D
27B6
9D82
1CEE
2B8B
2A38
A80B
A137
811D
26E7
29F8
A988
2579
2850
1F40
28F5
224E
94F1
A52F
281D
A49D
AD2D
A9B2
A296
A830
1CA0
2E25
2581
9CA5
2C3B
9D19
2B48
1D8F
AA68
A81D
ACF4
2A6E
257B
2B5A
A08D
AC28
294D
2739
A49A
A234
ABBE
24DD
257D
28DE
2718
AC6D
2C15
216C
1F46
22AA
A544
A552
26B1
2AE4
A523
A642
2B6D
268F
986F
2014
22B9
2CE8
22F2
27F6
1ED5
A398
A2B0
21F4
A818
249A
A226
144A
2676
1956
A1B4
1FB5
AC1C
A57D
1BA8
253A
2958
A749
A160
A64B
9A06
1383
A8D8
9411
2625
A583
2CE1
9EAA
ACCB
A3EC
A660
24D0
2B85
28E9
A9C2
A103
A367
2B61
26A7
1A36
1DED
A6E3
22F6
2740
A553
9D11
AC3F
266C
2858
1B58
1E6E
A809
1E4C
A72A
AA21
A473
ABDD
23F2
25B4
0EDD
24F7
276A
A93E
23BD
A08C
A604
2A1A
A65C
AADD
9F77
A74B
26C3
AA89
AC22
9DED
A9E9
28BE
AD63
ACBF
A53F
21CB
2E37
AB8F
1EA7
1EEE
A69E
A309
AE28
A515
269B
2169
AA7B
ABE6
2750
A5A3
A848
24A4
AB7D
24FE
22AD
A5A9
A532
AD10
9D65
261F
23CA
A114
A8EA
9CB7
A684
A1E3
A804
25B6
1E1A
1CCD
9F98
A82F
9333
242C
9E52
2303
A1F3
99A4
29D0
A1B9
223B
A49A
23D3
AAEA
196F
A779
AC03
9E5F
2492
1B4E
A6BF
A62A
A595
A899
281E
2A7B
24B7
244A
24B5
2089
A07D
A057
A600
2210
0C10
181A
17F0
1C28
290B
2618
1941
9FBD
266D
A388
A797
9EE2
9CEF
A16C
AA1A
1A8D
A878
2047
2951
A124
243F
94B9
A612
218F
A8E5
23EF
9F21
A8F7
14FE
A6AB
241C
A006
9E77
A894
A949
2A55
A010
243D
AC08
A009
20C2
20EC
1759
AA7A
1E65
1C98
2849
2A22
A93A
1D69
229A
A6B6
1D8B
244F
2CB7
21BD
261F
1F98
2A7E
1F40
A42F
A453
26C1
A95F
A544
A2A7
A7EE
2CD8
200B
A87C
9B71
2447
2CA2
9CC2
A57F
A8BC
A473
A230
12B1
AC12
2936
24B6
2924
269F
2A98
248C
A33F
2184
275C
A26C
2757
26AD
236E
2621
1DA0
A6A7
A175
A293
1E2B
A344
9C81
243F
28D4
2CCC
2A59
AA4D
A74B
A8C6
A566
1FCD
2145
2825
1BB1
2942
9FE2
9C00
A534
A9A8
2317
A849
2C79
A0C6
2905
2A5B
2C65
2792
2B6A
92DD
2A51
28A3
20B7
245F
A563
22A1
A53A
23A7
A6BA
A76C
26DA
A513
2951
A6D2
AC60
A6E4
9EB7
AB17
8FA3
A86F
A214
2304
225D
9DD1
A500
9FD5
A3FD
A355
9ED7
A7DE
301E
2AD0
AB47
9976
A54A
1D9E
AA8F
282A
A877
17F7
1B39
2C93
18E9
A561
2BAF
A5D7
A502
2006
295F
A7B7
281E
A4E1
292B
A805
A996
A136
A808
AA65
A3C8
9CB8
A8BB
A8B3
2A83
A5B4
A657
2BBC
9905
2388
A3F1
21A2
1FAA
2425
2358
27E9
AADE
27D1
2803
A89E
A77C
1F42
A07D
2A07
A6A2
297C
ABBC
274D
A903
29E9
1AC8
25DF
A167
A8FD
2A16
A2D7
26EF
2822
14CC
A5D2
9F5F
1D15
2870
AAF1
A15F
9CF9
19C4
AA26
A5BD
2D0B
2741
A970
ACEE
29B3
2A42
284B
1B5A
1C53
A0CA
1D09
2B24
A49B
9F2A
2468
A46A
2183
1E24
96C6
21ED
276F
A8BD
97B4
A81D
26BD
2281
200F
2084
2C68
9CDD
AC3B
273D
26DF
28AB
223B
2477
A684
A867
A40F
A5E0
A13D
9AD4
28B2
AB15
9A71
A05D
26FF
18EA
A0D8
2472
9FA5
214D
A1EE
24B8
21EB
24C5
2430
2076
A2C6
27AF
193B
214D
A560
2551
21DA
A444
1C62
A0AE
272F
258C
A4BD
23D2
A4A2
24A5
9AD8
2A23
A407
94C1
1B43
9F45
A867
A135
207E
A1FF
A853
A9AE
28CC
2AAC
A23D
9E9A
1556
A9D4
A672
A59E
A530
169C
AA5F
AB4E
1DC0
9B16
A8B8
0968
9FAD
A417
2707
A19D
A73F
2384
A938
9E53
1D5D
9B3A
2420
24E4
A171
1E8D
A84F
28A3
2796
A8FC
A9FA
2988
1DC4
2856
A78A
1E4B
A2B8
A297
2120
2A13
A582
2811
2104
A90D
A800
994B
2791
9C4E
A70E
A0F8
2727
22F6
A4CB
20AF
A025
234F
1E23
1E0C
245C
22AB
A4E2
A81B
9D36
A55C
A9FC
A810
21B3
24B0
2948
1D96
110A
2880
A768
9E6A
A689
1F78
A4C4
9DDB
A7AD
2964
A2C0
29BB
A4CC
A5F8
175A
2643
A576
2438
2848
1933
2174
2135
21D8
28AA
2306
9CBA
A607
2874
9272
A95D
2198
1A1E
A914
1D42
2546
243B
9A58
1E5F
A71A
9486
2AAD
97D2
129A
ABE1
2829
A784
2732
2369
A39B
A67C
27A8
A946
24EF
A1C3
2809
A337
A0DC
1BDF
228F
2698
29B2
A23C
A6FE
259C
20E3
A9FC
A529
A51C
2665
918E
22E4
A71E
29D4
2709
A08E
2991
A572
22BD
24F4
8F03
1EDB
1A5F
1A8F
A563
21FE
265C
1C54
2698
AC44
ABD7
135D
28F2
2234
A8DB
A036
A4E3
98C0
A24F
29E4
202C
26F5
202E
A8A1
1E41
935D
26F4
26CF
A5FE
1EF0
215C
ABF5
9924
1D94
A473
9FCE
A8D8
A617
9B52
24CA
A963
2395
9920
A54F
9F7A
26D5
9BE7
A96D
1E4B
A664
AAE4
1DBB
19EF
249A
145C
A2AC
A8F3
2A81
9735
145A
A134
255E
9664
9EC4
2264
25F2
210D
A837
2224
263D
ABAA
A223
1160
A376
140E
9E88
A904
2580
9906
A4E5
217A
9D71
9440
A18E
191A
1874
2BDF
27C6
A40A
23E2
A520
1C28
A62F
9E5E
A435
A0D1
A9F4
A114
249D
23CD
210A
A896
A048
2345
2B3F
A416
A3E9
2A27
9FFB
209D
9CFD
1EEA
A912
2A5B
2370
246A
24F2
A9A9
283E
1D71
28F0
A116
A5A3
A98A
2529
A514
1E1D
2045
A4DB
261F
A01A
A72F
26C5
A67D
A527
296F
1684
A33C
A37E
A8FF
201A
A86B
192D
A004
2690
21FF
A851
26DE
1C0D
A94E
280F
A7FC
0E4F
20E9
965D
11A7
A377
A709
223B
A28F
A42B
2809
2346
A9B4
1A6D
2153
0C0C
2792
9A51
1FFA
A4F6
A2D2
168F
26FA
1D69
A80A
A062
220D
A696
A2A0
28C9
1C69
9574
A567
2B9E
9FC5
A435
2614
A833
A043
A864
190F
ABBA
29FD
A173
A866
A136
A4CE
AA4E
A3D7
2724
A5F6
AB40
9AAA
1E81
A89B
A471
A857
A88C
A75E
A33A
A7C0
2A87
A846
2A85
A668
2945
AA69
A25C
23AA
2034
1D8B
9C2E
A519
9E1D
A768
28B3
9C5A
2419
9D75
2713
A940
A08D
2896
29B5
A41F
A94F
28FA
2678
A57A
1B43
2211
A48F
A033
A92C
2431
A752
25FC
26A8
1E88
A81B
A10B
A46C
2742
265C
AAD6
A7B8
2469
2185
232A
A238
9C56
1895
2933
23BF
0CE6
2793
2443
21A4
A824
2564
9F35
A486
A74A
A55A
252F
A302
A474
A539
2901
A991
9F4C
286F
A9A3
214B
A1BB
2A26
9F7D
9C18
2593
8D4B
188F
A51A
A521
2AC3
2584
9627
9CE7
213E
A8CF
A934
27CB
A7E9
294B
A8C6
A123
1F1F
A73E
2730
A95A
1D77
230F
1A0B
A3BD
9D84
A5B0
2880
9878
A612
970C
27B7
20DD
25EC
A874
A5A5
A045
29ED
9F71
A45C
22F7
2993
AC2F
2216
248D
9E07
277C
A794
A4D8
A54D
20E6
A7D5
A9FF
A122
A4AC
20C1
A49B
A855
2949
29A7
1CF7
2A60
9D63
2B05
28E6
1FF8
A9AB
1E0F
A588
13C4
A872
A743
A9AE
268F
A92E
2869
A50D
AB20
28EA
A9CE
990F
A8E5
A01A
A75D
22DF
27EE
2553
1140
2960
9F74
A42B
2470
A0BF
A3DF
1F76
AB0A
A703
29F3
A96C
2253
ACCE
A72E
2AA2
A6FC
2475
2813
1DC4
275C
9C7E
A540
A617
A35F
A712
2A90
2B5C
24AF
2815
251F
24A6
2232
288E
A547
2456
A0E5
AC8A
259D
244B
A2EF
228F
9F13
1431
A605
2445
1638
19BB
27B1
24FD
8AF2
A63C
A9A8
918E
2207
9791
2594
2108
188E
A57D
A397
20F2
9B18
28FD
A609
2766
24A3
A496
A398
A9BD
A5F6
29E9
25CF
AA86
A7C2
27EE
A0C4
A5BC
284F
A4AD
19CE
A44B
9E67
29ED
9791
1CF2
2858
2915
18A2
AC1C
A2B9
2AA7
9987
14F3
269D
987C
A44C
A8D1
A94F
248B
18F3
A689
26F8
A258
1A6C
A53E
AD67
25A0
2464
102E
2762
29A4
28FF
A86F
A3C4
239B
2500
A88C
27D5
25DA
A235
1BB6
A3CC
26F0
262C
A65C
A1B2
2976
A834
A0B7
266C
A71A
282E
9A20
2807
22E0
AA43
A763
1816
9F33
9CDD
246F
A140
9D4A
202B
95E0
221A
1B47
A2FA
9CE3
2AF9
A3BF
225C
A1ED
A80E
1EEB
A0DE
A908
9BFD
0C04
A558
1B26
0C0C
2988
AC1C
26ED
25A8
A5AB
2334
2445
A26F
9910
1DFE
21E3
A625
2886
236A
A7F7
A904
A07A
1FD6
2AD2
2502
25F2
2138
9D31
2382
2453
25F1
9CDC
1ADD
A65C
A500
9FD9
1A90
1A99
1926
20C7
193E
208F
2609
1A6F
A637
2741
2244
25C8
8832
1783
9DE4
AAF6
28DD
1F48
262C
1E46
A48B
A033
2AA3
2A86
AA74
261D
A50C
269C
9E8D
2386
253F
A2BE
29A5
A68C
A53E
A6CE
A7E3
A07F
AC60
A4C2
A561
A4C4
8E79
25A9
A42F
A6B8
A6F3
A054
A5F3
2A6A
A919
1F5E
152E
A1B2
9DE5
200E
A100
2AC8
A633
8BB3
2AF5
10CB
A5F4
A241
1F3C
286F
1EC2
A250
22EE
A99F
9C67
2561
1985
A843
A9C2
20B7
209C
A39D
A6F0
A1D2
2788
AA15
A5B0
A961
2870
2645
1F74
200B
97E7
28CE
A059
8F68
A0DF
251A
23C3
220E
2712
207F
2046
A6D3
287C
9C3A
25DF
223E
A71A
2112
AB4A
A592
AA21
A290
A89E
2A7F
2B64
2400
2AF1
A18B
1A36
A840
15A7
A832
11F7
A808
A8DA
A261
25BB
A1C8
9BF4
2886
11C0
A5CB
1D91
2576
A3A5
9D1E
9FE4
21B5
9AAA
9618
16A8
2C8C
A562
2395
2822
1FFB
A473
2A16
1A5E
2542
A1CE
A7F9
2771
A960
2162
2883
245A
A983
9F15
A97E
A6AF
1FB3
A490
286C
A28A
20FD
9E1A
2401
A6F5
16B6
AA69
26AB
AE62
A348
1EA8
AA09
AA3E
A241
29F6
A7EB
A6F8
A123
2750
294E
1C90
25E1
29B3
98F5
22F9
2823
2C72
A5C5
252D
A9EA
A84D
289B
2C13
2128
2684
2791
A9B5
2491
2B57
226A
9B87
2622
A068
24B8
AA06
A569
2663
A6D1
A800
A23B
28BF
A68C
14DC
2786
26A2
A6EF
299D
25B2
1E25
9CA6
209F
2666
1AAD
2869
2575
A72F
A741
1D4D
A439
261D
A6CF
25B5
A78F
A790
28D1
9F69
2475
9DE8
2594
2128
A945
99CB
2A4C
2491
A013
1EC9
1EB8
2424
98E7
A2B4
A79E
2557
A9D4
284B
228D
9F23
A928
1D03
24B7
25DD
2960
A02E
2563
1E27
2968
23FE
A455
A41D
2573
A5C9
9C59
2611
A83C
A711
26BC
220E
A633
A521
1BC6
A07E
A75C
2572
A45E
A520
9D88
A479
A1AF
A2E7
A616
285E
9F2F
2809
1D6C
98B2
2248
AA81
A55D
288F
248B
21D0
9FD9
2495
222D
AA7D
A5AC
9F2A
A0A2
A66D
2552
20E7
26E3
2683
A91D
949F
0FD9
21E5
A58D
24D5
268B
2868
A82D
A025
A6D6
240B
9EDD
A892
A4BE
A3C3
1B01
AA93
A77D
A8C8
2409
A6B0
25B8
9DB8
A04E
2A60
2ACB
2872
9FD1
A435
A970
A6E2
28EB
A364
2491
22E9
215A
98BA
9CBD
24FF
A76E
A8D0
1B3D
25F1
A724
A2A6
240D
A5AE
1756
29B4
28FB
2A1E
2C78
136C
AA1C
ADAA
A483
2DB6
A6AA
AC33
14A1
AA9C
2A23
2406
A86E
A0B3
909B
23D6
2B4F
233C
952E
2C85
236A
3264
2B2D
A722
2EFB
A874
2B36
2314
2D42
2D32
A013
2FF4
A596
A9B6
9E75
A76F
2A7E
1F91
9D09
A29F
A957
28AB
A6FE
A853
1DF5
A9DE
2A12
A4C4
288D
2570
A675
AA57
296C
2D50
2C6B
A7F0
29A8
A6E4
A4A2
2717
9F32
2F9A
A7CA
A2A2
29CE
AC86
2EA4
2BE3
ADC2
2C7A
2A36
A731
1E91
3218
3015
373F
3802
32B8
B1EB
B6F4
3724
33E5
3266
2903
AD56
3409
31CD
3576
305A
24A8
3310
3179
358E
2EB3
2DCB
3022
3056
1C03
2A85
1D32
2C52
AF9B
ADA0
3140
2FA9
B006
303F
3264
3235
2E69
29BE
2EAB
3017
2C59
B01E
A332
A526
B018
B10F
B451
A963
2D3F
B0B6
B36C
B627
27C4
A693
AA5A
29A1
A88E
2C64
2D5A
2F49
A3A6
A93D
2B18
2DCE
305B
317C
2D46
255A
2585
2A7F
300E
2DA6
2D78
2E27
343E
32A3
A737
A8E1
ADDC
2663
32F9
313C
28D6
3054
2BF3
3051
32CD
2CCF
A79D
3080
3017
A870
2B69
1EA3
2A22
A98F
B0BB
2E11
31BE
2C77
B2DE
B18F
A635
A92B
2525
2E55
2C52
A025
84FB
ABD9
A0C8
2BE1
2297
A637
A444
A6F0
A71B
A64F
AF04
A8C7
2844
2AA1
28AA
AB95
A620
3177
2803
B20E
A88D
2918
2B08
2CDE
AF40
9AD0
2983
3070
324A
B3D9
AD3D
2DD9
32C9
2E53
B1D5
ADBE
2D28
2CAC
24D3
A255
2516
3037
32CA
28CF
265D
AAB4
9CD5
A19A
1D83
9CFB
A896
A509
29DE
2614
9C04
23BA
A081
29C5
A454
28C2
26A0
2170
1ADD
17EA
2BD7
27B8
2DF9
2C0F
AC72
B1E4
B0AE
8432
2FE3
3131
B101
B272
B460
2F7A
30C6
AE68
B113
B539
2DBE
2C11
A4B0
A9EB
B50B
3534
25CE
A69A
AEA2
2508
35E1
A49E
A14E
2860
290D
A714
A806
A9AF
A9AA
1911
A9E6
1AFF
AA85
2709
8D32
A86E
A815
A6D0
A6B7
AAD6
2D3F
2A8F
2646
224C
A6D1
9AD8
2C82
2E64
2C58
A196
2CAE
25CB
2C59
290B
A3E1
2723
2426
A430
ACBB
AD30
24D7
9323
A6B4
AED8
A66A
A1E2
1EBD
2ECD
3401
336F
2875
AFE0
A99C
A43B
2567
A3A4
253C
A829
1AAE
A0F6
A89C
A784
2404
2385
A82B
2AAD
22F0
2613
2CDB
9CDD
AC2E
ABFA
241F
283C
28D0
25EE
2985
AB70
A3A6
22C1
9F7C
15FF
2B96
2904
A36D
ABA6
1CE5
243B
A60D
9FF9
1C2B
A48C
2CD9
A96B
21BB
20D7
B065
24CA
25F9
2E81
2A7F
A657
26E4
AB07
AD70
ADC2
2B34
2AE8
B0F1
B284
ACD5
AF76
3002
B0FC
A460
A6C1
B159
31F5
AE50
B200
B305
ABA6
AD78
B172
B455
B0DE
A92A
B400
AE81
2F9D
3121
2E2F
ADCB
B094
AAF1
307A
30C1
B069
B31D
B159
2D12
2D95
AA9E
B379
B4ED
ACB1
A89C
2CBA
9C82
AAF9
2968
A5CB
26FE
2A5D
13EA
2D5A
30C4
AA27
AA34
B09F
AC4B
A1EF
28C0
2C7D
1CFB
A6D7
23F2
A6C2
A446
ACA8
2BF6
2BC6
1C10
A32A
AD86
30AE
3290
2423
AD4B
224A
2BC1
A822
A6C0
ACBD
259C
2D05
26A4
27A0
B052
AF21
24DC
A2AD
24EF
AB3C
AE5B
AB4F
27EB
2BB8
9E2A
2ECE
2FA2
23B4
AD1C
26FA
A138
AC7F
ACD7
2C94
3075
ADEC
A4BA
AB3E
302A
3615
A7AD
23F4
1E7B
2F2A
32A0
A4ED
2C20
2D23
278C
A8F3
B072
2CB2
2EB9
987D
ACFC
A61F
2916
ACA4
282E
A501
2B17
AC05
B041
A496
2BD7
2803
219B
2457
B017
ABAD
8E8E
32C3
308B
B095
B440
B058
22E0
2D36
AEEF
ACC3
2723
28FF
A59D
296B
1121
2BA9
2A62
115C
A93F
AA2D
2887
ABDD
2D0F
2A71
AE64
1E22
ACDD
AC55
2C46
A8A6
AE70
A9D7
AC76
24E8
16B2
AA8C
A84A
2885
2B98
21B9
A93C
277F
2178
9E72
A876
2507
2B92
AC6D
243D
90F1
2C94
2965
ACC9
A8B5
B0B0
AF69
A87F
20F8
2C49
362F
3094
AF52
2BD3
A08D
2EE9
2A80
2843
2F7F
AF9A
2586
2B66
A90D
303A
AB0E
2A29
3036
2101
A1C0
AE6E
AA46
B24C
B4B9
A99E
A036
21BB
AA3C
2632
2200
2E03
26BF
14D0
2641
2A1F
2D04
AD0D
A7FD
210C
A175
3029
A5E4
AC79
A4A1
2C14
8A31
21B3
A2B0
250D
AD6A
AADA
2F28
2BCD
AC00
AD4F
2720
2E9D
29B6
ADB2
ACD7
244F
244A
9F4D
9C9C
2664
2D0B
2DE9
3170
204D
2D25
A0EA
310C
2F62
211A
A2C9
AAF3
B013
AAF5
2F25
3153
B471
B5DF
B418
2725
2D0F
B3B6
B183
B32C
B047
A4BD
B2D8
B2D4
B377
9C03
A8A7
B0AB
AB8C
2CC8
28B8
AE72
B555
B407
B172
AE70
25D8
B519
B1EC
ADD5
29B8
2D69
B21C
A8AD
A8AE
2C38
2EAB
B449
AE95
2958
32F4
33FE
B044
B078
3536
355C
3624
2623
A5D8
2C3B
2EAE
A82A
A09E
AEFD
AA2B
A8C5
AC46
A928
2556
25F0
2D63
AC67
A9B9
A97C
A8B2
2A72
2C26
AA3C
2D83
AC25
24B7
3104
9E6E
2AA3
2EC7
15D9
986E
A708
A3C5
A810
A7A5
2A5F
A851
B183
AC33
2498
24F1
AE68
ABD0
2A0A
2F07
2BF9
1F7D
2501
300E
2611
2CD0
A840
286B
A924
AA21
252B
AB1B
2D69
A058
A406
A8E5
201A
2954
AA8F
AB0E
254E
28CA
25FD
2705
A5AD
2DA2
A887
265E
A928
2A15
20E0
2E20
3069
30B5
2DA1
1D50
2C23
3553
37D3
331C
A7DC
1C30
31FB
37AF
322D
ABCA
24FD
2C1E
320D
2FEA
A1DD
ADEF
B303
B415
A49E
AB3A
AABF
AD65
AD4B
9D49
A4CC
2C3E
1C56
A010
2DD7
A773
A8C8
A97B
A008
25EA
286D
27EB
9CD0
ABBF
29A1
A96E
2D48
2AE9
A235
A031
AAF7
2ADC
2EAE
1B6B
A937
A684
A844
945F
A054
A5B9
A069
9A8F
0C43
A8BF
AD38
A49A
A843
295F
AE50
ABE6
21A2
A519
2CB1
9541
2E4C
25D8
A607
A0D9
AC9D
A45E
27E3
2799
2974
2632
9DE6
A879
2D2D
2347
A790
2B9A
1C2B
24F2
9C48
A1F0
2391
A09A
A6A9
ABAE
AC4B
2C75
27E0
2D0F
293A
AD8F
B0C2
ADA5
2EDF
2D2B
2421
A6AA
A84C
2CED
315E
2B23
2A54
AC17
2DDB
31C4
2AA9
2DAA
2910
33B3
321A
34CB
2EDA
2CAC
B36A
AF6F
3273
3583
30F6
A882
2AF0
2D67
29E5
2CAE
2E30
31F2
AC69
B046
A59C
A895
317D
AE5E
B10D
B3E4
B11B
28D4
A7BA
B326
B41C
247A
2855
26BB
AE9E
AD37
A896
189C
2915
AE88
AC85
9829
AC96
2650
A782
A8D0
20E2
A8DD
20E9
27C8
9A14
2D50
29DD
A693
2CC5
2147
2B8B
A874
250D
25A3
AD78
A7DA
ADF6
2861
AB34
B067
B0CF
B3AD
9C87
2DB0
2EDC
AE93
B3F8
A8DD
334D
3148
AD44
B32C
AC92
2D83
305F
B02D
2C87
33A1
3296
30E8
2D87
2D6C
2BBA
A92C
26D1
A952
1FBA
2C4A
AD62
B0EE
9F5C
2E0B
349A
B115
B2CA
2092
3305
34A7
A9B8
3106
1AFB
9F5D
2679
29CA
28F7
2ED3
2817
2728
2BD6
26E9
30A5
2E87
326D
1ABA
2BE3
2A66
A897
2E69
216F
29AE
AC82
B1C1
AA55
3081
347D
2E72
AC85
A9AF
1DFD
24D1
A0BF
AB50
AD3A
2A11
A9E2
293F
2B91
A0C0
273A
239A
AB9A
A1B0
ADB5
30A5
A8AC
2CCA
302A
29F1
2BC0
AD54
A8C3
B513
B6F4
B64D
1A3F
B16A
B250
AEE9
AEE5
26C1
B385
AD83
AD59
291A
2EF8
B259
A0FF
2AC5
3332
35CA
B269
AD57
2808
3763
3120
A484
AB34
26CA
1EB8
2C85
AA9C
269D
26F9
ABA4
2789
9415
2C81
1E47
AAF4
241F
28E4
A687
245C
A86E
91C4
2DBC
2980
9D88
25EF
137B
AA07
B3F6
B41C
B077
AEA8
AF98
B35C
B53F
2D47
335A
AA57
B095
AF57
3017
2D55
ACD5
B373
29F2
30C0
B101
A969
ABA4
9F92
AE82
B270
240A
2939
2DAC
1E9A
2056
A7B7
2AE3
18FB
AA20
2C2A
A12B
25FF
28F1
A6D8
A4B8
AB50
9A2E
1DB2
12C6
2575
AD92
2A93
24FF
2633
2C7F
AC28
A962
A480
AA39
1FC4
2A33
213E
A476
1DAF
A97F
23BB
29F0
9B26
A8B9
ABE5
25D4
1CCA
2451
2695
2490
18CB
1C09
AC79
AFA7
AC69
A8C4
A6C4
223B
A824
AC10
293D
2BE9
A6D3
A38D
AA60
2304
284C
ACCC
A896
256E
2B04
A5E1
A9C6
AB0B
23ED
ACB7
28A0
B0F3
A1C0
25F6
A3A6
B021
AC1C
123C
AF09
288D
A864
B159
B317
AD18
303F
AF93
B186
B0E2
2801
2801
B2D6
B22E
AA69
A8BF
3474
3078
0D9A
2D02
2565
267A
1FC2
25D6
26CA
25F6
A9CD
ADB1
ACF3
AC5D
A1A7
9987
B001
A616
274A
2478
245A
A486
AD9A
2DE5
241D
ACDF
B28C
B064
AD2E
2B42
AE1B
2779
A2B1
2953
A19F
A6DB
2359
292B
A4E5
2CD7
276C
8A64
AC7A
A4D3
1D9D
A02D
28F1
A53D
A288
AA18
2D03
A82E
217B
2942
A635
A7AD
A988
A889
240D
260A
2A06
A0B4
A9C0
A977
A97F
25D8
29B5
A885
2AB5
A0F9
1201
206E
A918
1EC6
A49C
207C
19D7
2858
2AD1
A41E
291F
A0CF
26C0
A5A3
964C
9EC3
2187
9BAB
21F5
A2AD
9FF2
2BA9
1E23
9996
2BEF
9E72
2478
2501
24AE
A04E
1D81
29DA
27C8
AB0F
2A43
246B
2975
2A02
2831
2542
ADC9
20D5
A587
A42A
98C5
AB7B
AFCF
9E82
22C8
2AAA
25AD
2A6D
25A1
292A
2C30
2CFF
9EE1
0D1D
AB52
2A8D
A218
A74C
A01C
2C52
2BBF
A814
2C19
2BCF
2940
2100
2C7F
25BC
1E71
A765
A7D2
A996
1BBA
13D1
A4AB
9C96
2A2B
2524
2120
2712
28C0
2664
A2A6
2608
2721
983E
2849
A716
2A8A
A14B
2842
25C1
A94C
2B51
2B05
29BE
2978
A99D
A6D0
A92A
2459
2B08
9D28
2597
25F7
1F26
A8F3
A3C1
A87A
2A11
256E
2924
21D7
2C22
2ADD
2A80
A17A
A53A
1849
9757
AB12
ABC9
A565
A9BA
A706
A8FF
9E8B
A729
A847
A987
220F
1ACA
A81E
2805
A590
A5AA
A461
2552
A5D2
AA60
9C1B
A103
2605
A4CA
A573
A631
A74E
2BCB
288C
2978
2B8B
26C4
A80D
A15A
2099
1DB7
287C
A0CE
A5A9
20DC
2896
21B3
0D29
AA60
AAED
1FBD
2C03
27FA
293C
2108
298A
98CC
2D2F
2863
9B96
A7ED
28BF
A1E1
1CA1
A9DD
13FB
A879
19DE
21B4
9D25
A7A1
211B
A70E
25C6
276B
9C0D
9485
24B4
9B12
9C55
25F8
A8A9
2626
2212
A2B0
96C7
9CFF
A5E2
A591
2449
A544
A91E
AC0E
A922
9E0C
26CF
27B1
AC3B
A85B
A8C9
9A36
2BE6
A55F
2898
2296
2512
2825
2BDF
215D
1AA0
A925
A62E
2379
A2D6
AA7E
A1BE
A040
2380
2AD4
A4A4
24AA
9EFA
A368
9D21
A95C
285D
2359
24DB
A037
A957
9D73
AA19
A433
A6E9
A526
1D8A
A8FD
286B
1BA2
A9C7
A434
A776
2A5C
2784
A8CE
25FD
A071
2B02
20C5
A4C0
A048
9D01
A611
2906
9D2A
24B0
9F96
A4FF
20A8
1FA6
2A31
A96A
A95E
2941
263D
A0A6
2926
9E12
A84D
A76F
A4F6
1AC1
A4F2
9C99
209A
282B
A039
1F0C
2446
2BFE
24BF
1A9B
AA68
A6AD
299E
A970
2693
25CA
1A30
9D8A
A85A
1D00
9E57
A3CF
2570
238A
A67E
2A63
A3DD
A617
2813
9D43
AA1F
A4A1
2642
2487
1581
A6EB
A088
93A5
1FD7
2512
28FB
A0CA
2979
284F
A037
1D9F
A3E3
A82D
271F
9C14
295F
A454
2B68
A635
A17F
2330
AA2A
A4B5
A5F1
A705
A910
AAB2
2053
9C45
A47F
A4CF
A411
22CD
2A06
271E
A7B1
AC97
25C1
2B67
2416
28DA
9CB2
AD88
2D23
2355
2614
A25D
A806
A686
ABE6
2BF8
9F08
A936
A0F0
9CF2
21CE
A911
234B
2290
29DF
A83F
120C
2868
A43B
2559
A254
226A
A4A3
8618
206C
A511
25C3
A987
9B40
A6C1
2AFE
1C16
A445
267A
2191
2480
214E
A51C
ACF4
00B9
9A71
A609
A891
20B9
2975
25B4
A150
AA84
A795
133E
22AF
A033
2C4F
25A9
9D00
A623
9845
1FFA
AC45
A922
269B
2729
1945
25D7
23EA
2609
21F0
A47A
A170
25FD
9EDC
2812
A2CC
19BD
27B8
20F2
A46F
AA72
24B1
268C
A3A9
20A8
21ED
A8B4
293F
253C
153E
221C
AB94
28C1
A664
24EA
9F3E
242F
21B8
A534
292B
255B
AC0D
A845
AAFA
A7D2
2DB2
1E50
1C1C
A8E9
A9F0
A086
2A8C
29B9
240A
ABDB
AD54
AD30
A6BE
A9B4
AC18
24F4
27DD
9A7A
2405
26E4
09B4
A9CC
2A81
9C40
1F29
A9EC
9C96
A68D
94F6
1578
9683
1617
243B
A602
A137
26ED
2A39
AA4B
1825
2750
A462
96C3
280E
A4D4
203A
28BF
9F57
AA05
28A5
99BE
AA11
1984
21BB
A82B
A4C1
2426
A546
8D18
2636
A76F
210C
A95E
2B78
25D7
2830
99D4
2469
1CAC
9C57
AD62
260C
2939
222B
A6E4
2829
28B5
19FB
1B6A
255D
2B11
299F
A770
24DE
2A67
21FB
1F6C
A845
1493
27F0
A2F1
A6C6
A7CF
13AF
2227
2A17
2AE6
A042
A557
A190
A672
A87D
A681
213A
A856
A896
A156
2640
9E94
9A37
255A
AB22
250B
A5E3
A814
29E6
2ACC
A93C
0FAB
18D2
9909
A7D3
AB42
256B
20CE
A232
A88D
A637
2908
A000
A84D
A41C
A48E
27E2
A198
9F4F
2793
290C
A291
14C6
A84F
2417
2FAF
2AEE
ACE4
247D
AA97
2864
2430
2A0D
2BA2
21F2
22BB
A667
2B38
27DB
AA67
19E0
9F3A
A8A9
AA0C
A6F0
20A7
A342
208E
AC57
2528
21EB
2462
2589
22E1
2966
23EB
25DE
A0B6
2A51
2BF7
97AB
20C4
23E3
A3F8
A755
ADB5
A531
AA98
AE62
21BE
2246
A14B
233A
2842
2A3A
1558
A601
AC71
2488
1831
A654
A05B
AC26
A39D
A219
2AA7
A487
A43C
A065
A405
ABE8
2138
2AB1
A211
A6DA
9DE3
A734
079A
2278
AAC4
19B3
A71F
A102
2902
28B1
2130
ABAF
AB23
A83F
A7F4
1D1A
A459
1FD2
AA3C
245A
A7B4
1DD1
9A13
24F9
25DF
206A
20E3
AC19
A164
A5AE
26D4
1D86
2907
AA48
A169
2013
A4AB
9EA0
259C
9FAD
1D0F
A6B0
1F84
9C89
975D
A600
20F9
9F5C
A5C2
9A5F
9854
A43D
A686
2B30
25D0
2051
A2D9
2833
29C9
2B4C
9844
925B
A97B
A879
2C70
2EB3
A16B
A949
AB0D
292B
2806
2487
A13C
2DA1
2430
961A
A429
A1F0
A949
A6D3
A5AE
A680
241E
26CD
AB60
28E4
A55D
A1D1
2611
22E6
2997
28BF
A49C
20FD
A693
A9BD
14F7
A6DE
2601
22A1
A529
A7ED
2987
A3C0
A662
28F0
A89B
2814
2A55
273B
283F
9E7B
9901
1DCE
2903
2105
A4A1
2040
A740
A55D
9DE8
9D5A
A8AF
231D
A2E3
2AB8
A4E8
29EF
28CB
A6EB
A3C0
286A
21E4
A8C5
25D1
14FA
A614
A630
A5A1
AB10
25E6
28BF
A398
1B2A
2289
A898
A491
A5C2
26DA
26C9
2444
215E
1F25
2471
9D31
AAF8
2B76
2403
2131
2B01
1EA4
A871
2817
2650
2136
1EB0
20FF
1E82
2A7C
A789
A83F
A24A
1F27
A45C
24A5
A264
A734
A998
250B
1C08
2B7B
2501
A11B
A71A
A88F
A61E
A95B
2CC7
27EF
9CE6
ABBB
A9AD
9EC4
27C8
2A85
A5A2
A8AE
1D14
22DB
A8EB
AB7D
AD41
AABA
269A
11E2
2498
A954
2919
2B8B
9FBF
279B
A8E5
ABE1
A7DF
2BCE
A265
AAA7
A4B6
A029
AA68
A44B
290C
2896
A853
1F23
22F5
A8DB
18A4
25CF
A064
9BDC
23AA
A861
98A6
9DA8
21FB
A02A
A8C8
2527
A420
2CED
25C4
A41A
2E9F
A10D
225E
9EC8
28E2
1C73
A9AB
A609
9F7F
ABC0
2697
8AFB
27D6
29C0
1171
A844
AABF
AAC6
287A
A5E2
28A8
98BE
1EBB
9CCD
2979
24D6
1BCE
2B94
2A27
A961
2760
A75B
22CA
2B9D
A610
A378
A17A
1FC5
1ADE
A7BB
2980
2688
1AF5
252D
2B66
246C
2092
A99B
A5E1
2DA8
2CF5
20FF
2669
2056
2751
A40C
A45C
A245
1D8F
2884
22BF
23F4
2970
2601
2396
98C3
A8E5
A8CB
1C47
26FB
271D
1D6F
A516
2A21
239B
1FCA
A115
25E2
A734
A73D
261F
0FB8
2593
2772
1A43
AD02
AF0D
AC66
2328
AD01
A9EF
A825
2204
275D
2372
2CAC
A02F
A579
292A
28B9
A4C3
A71B
24FA
2C46
24A0
1EF0
2899
268E
A571
1396
1D0C
1824
A3D0
29C3
A05D
2958
A3F9
A694
A13C
A8EE
A901
A617
A586
A01A
A66A
A422
28D5
A941
2655
A881
10A7
2048
A4F5
287C
A937
AC9C
9ED1
290E
AAE2
A42F
AA57
25A6
28CC
2DCA
2945
28AF
A8B5
9D5E
A343
A77E
27C9
23CB
2C4B
27AB
AB62
A435
A5D8
A95A
2A09
1C13
1863
28F4
1889
9ED4
A15A
A328
2005
A617
A7DC
270E
A60B
A6D5
AC59
1B92
2A08
20DB
1EFE
9F7B
1C57
2467
269B
25A5
A280
9C28
A702
10FD
2502
235F
21A7
A5DF
9F0C
A55A
2AD3
1A63
231D
232A
2768
26DB
A75E
274A
A087
A522
A59E
A7C5
A1E2
2328
287F
AA77
2090
9F95
1D31
292E
24E0
A96B
2A1F
A2D9
2783
24BF
1A09
A821
A4B3
A71A
2454
24FC
A8FA
2922
A7C1
AB9C
252D
2811
279E
A78A
A57C
284B
A3C7
A41E
A888
9C7B
2223
1C7F
2768
A5A6
2565
2803
9879
25E8
A6CC
AC5C
A29E
230C
224D
AA81
A89C
A1C4
AC3B
A316
A02C
A126
1B12
2365
2188
26DA
1979
9AF4
AA09
1008
244A
2978
A859
ABF5
A96F
A44F
29E0
A843
2A83
A04B
1D58
A1C3
1E9D
2833
2829
A6EB
A4B9
2717
34D0
261E
9FB2
A994
2B42
A4DF
A9D2
2922
2D20
2C20
A728
B04F
ADD7
AA0A
A594
A884
AB9D
AC76
B128
AC1E
24E5
A6AC
AD84
26EB
9DA6
2A79
2889
29D2
9D61
25AB
2C3F
A67C
29A0
217F
A3D9
2D2A
A0B8
1196
2A30
AE02
A809
286D
21BE
AA46
2599
A198
21ED
297C
2792
1851
AA56
2814
2800
A80B
2469
2EEC
A86C
A7B4
A96C
AED4
268A
2417
23A7
A444
A813
A8E7
20A6
2D5B
2502
99EB
2C91
1857
1AA0
2B8F
2F56
2B35
33FB
3307
269E
B09B
B444
3572
337F
2C14
31A1
2D0E
2610
2C77
B04A
B06D
2E67
26B5
2609
AEA3
ADD7
2EE8
AC14
ADCC
214A
3226
3224
289A
245A
2ECF
3368
341B
A8B7
2764
29EE
32AC
32BF
AE2D
2DDE
A8CF
ACB1
B0DC
B04A
AF41
B0EA
B50C
B3DF
A2A0
298D
2F9B
B0FA
B4A7
A98B
AC5B
AC49
28C4
AB7B
2DC6
3108
AC4F
A6E4
26F2
3369
33CB
AD2A
24C9
27E9
22B3
2C50
B1DB
AF29
2CB3
1DDE
2BBC
B1D3
A55B
A99D
9902
AFBC
ADB7
1DA9
2DE2
A8C3
297C
30D8
3360
316E
2C6C
AAA1
A47A
1F06
2B8D
A9E6
AA19
AED8
B0F0
B27C
283A
AD0F
AD95
B28C
B28A
293A
20D2
27A0
2244
2A99
29E8
1CFE
AC33
A62A
2CE8
0F96
9C0D
AE97
A72D
AE13
2C27
2D5D
A764
A54F
A2C6
225F
2B35
2B0C
2CBB
AC74
ACB7
A68F
2AB6
1036
23DA
AF22
AE08
AC20
287B
209B
AE6A
305A
2070
2E5C
A35F
25E3
204C
24C7
ABC0
AED3
2046
AD87
AF01
B1B1
B17E
24DD
A294
292A
245B
A83C
99E2
9F17
A7C6
134A
2D6A
2BAF
AA13
A8BB
2898
ABDE
26DC
1B34
2AB7
2659
A991
80FC
9E16
A978
2B8C
A80C
23F3
219F
2CBC
28F8
2F45
AD9F
ACB2
ADE0
A6C3
302C
2C08
2A62
2D9C
281B
AD0D
3048
32FE
2F98
AC81
B2D9
351A
304A
ACA6
AB25
AFFD
2571
A762
22F3
297F
9D72
9F44
29BC
29C6
2698
2AFF
AAE4
A961
280B
2AA0
A533
A7CC
AE80
A937
2A9D
257E
2896
A6C8
ACEA
20D8
A4C4
2C7D
A57F
A43C
A4EF
A445
25B6
2317
A945
2559
AA39
2CEE
A78A
A66C
A8FF
2B35
A8AC
A659
AB09
9CA6
236A
A815
ADA6
A897
A9FF
AC7B
A3E2
255F
A592
A5E1
25F8
98BD
A918
AB06
A86B
A9E3
A9D3
2725
AE99
A900
A98F
A87D
B023
2640
AC8C
268D
AC6C
A7BA
2666
A2E1
A2FE
268F
A29C
2A36
921F
A1C4
A720
A62B
28BD
2614
1CE7
2446
A793
1D5E
2790
A879
A695
9994
282E
2BA2
ACDC
2674
1AB8
A318
9C85
AC64
B0D2
A774
AAED
A4AF
2650
2879
2891
2AF0
2F41
A85D
2A4A
2F45
A567
AB24
ADDF
2527
A0EA
2064
ABEF
A099
2416
A4B3
B1BE
AE08
27F9
9D2D
AF29
AD04
AE0F
2932
AF6D
AD26
AC24
3039
2733
B34F
B140
B020
A845
15A9
2983
ABA7
B36E
A91C
B072
2C6E
B13A
B1A9
AE68
B2F9
AA81
2F81
2C2C
29C8
2A82
9D68
1C9B
AC03
2CF2
2792
B1EF
B18A
25D5
ADFC
B14D
AD2B
A497
A83D
27F6
268A
A699
2CBF
A45D
2C4E
3148
24FD
ADB4
AD39
AF25
A9C9
A8B2
20BC
9132
ADC4
20E2
2E94
2C10
2B64
2A7C
A106
ACE3
1FE7
293A
2965
18B9
B03B
2666
AAD9
A508
A8E0
A636
AF42
AECC
2030
AD73
2CCF
2BBD
2890
2E4E
29BD
ACAC
2837
244F
2B5A
27E6
A5CE
AE47
AE36
AA06
2C3B
2559
AD2A
AC0D
2D2E
2F12
A7AA
284D
3177
325D
28FA
280B
240C
A5ED
AA87
A11F
1D55
2895
26FC
AE7F
AD33
B2A5
A9E3
2FA3
320F
2D93
AEA7
1227
2E2F
2567
27AF
9D4E
2688
1912
172B
A702
2883
A543
A4D6
2B21
2B13
20CB
B076
A80C
A8D3
A09E
25C8
20C8
2AD6
25D5
A4FB
A5E8
AB92
A44B
2BD6
A429
A261
ABD8
A985
23D6
2C9F
8325
AC29
A945
1F01
231B
A99A
A450
AB7A
9802
A62D
2C24
21FD
2F25
2A6E
A958
9CCD
A4DA
AF27
ADDB
2871
2ECC
2D53
A3C4
B187
A616
2CD5
AF50
ACBD
B20C
A8E9
B40D
B083
A7CC
2EB1
294A
B0C1
27EF
2EFA
30F4
2EA8
318C
3476
348A
31D2
2C38
A54A
2951
15B9
282E
2051
28E7
2C3F
2490
9253
1475
29B2
2482
2C4F
2982
2A07
ADEC
A7C0
2981
2B75
A549
A972
2A93
A7A8
2C22
AD19
ACAF
A782
2E96
2A80
28CB
AEF2
2C3A
1D14
A8DD
ABC1
ACB8
AE8A
17EF
2009
2AC9
A992
A846
29CE
2C66
2AE8
21BA
AA44
2A67
2E59
2A0C
28EA
22C5
2D7A
29A8
AA1F
B40E
B443
AFC7
2852
2E98
B44C
AC80
AA5B
3032
A839
2D58
B36F
B0E5
3328
AC22
2CFF
B2B0
B024
A66F
A918
AF5A
1666
B03E
B0D9
210B
AD1E
AF48
B390
B183
ABF0
A2A9
2741
AD9C
AD8A
9D60
2CEE
2921
9B52
B263
AD5E
3120
ADAE
B0CF
2829
AE18
989B
9CE9
A20D
3111
277C
A4DE
0CA7
A65E
AA3D
A9CF
B09D
AF88
2E0A
2B5C
AC38
AD80
AF0D
A808
2D64
2D43
ACBC
AD6E
ADA4
AED1
2AAE
2A66
27C6
2CF6
A6CE
2CEF
A9D5
9F88
2A5D
2D3D
303D
A53D
ADD3
A90C
98C9
2C29
A3E8
AAE8
2FD8
2D36
9933
ACAE
A85F
1C0C
9EE0
2171
A2A6
9469
22A3
1B43
A6B6
A98D
2969
A5F7
26DF
2D65
A85D
A06C
ABBF
A5D4
A7AF
106A
2593
2CAA
2A7F
28D7
0B5F
A847
1F56
293F
28F9
A59A
2D1E
303D
2947
9DB3
25C2
35B1
2640
A9A9
9972
3004
2275
A162
A149
A82B
B2BA
B515
3047
3271
2277
AD1A
A638
2457
AAF5
211C
23C1
A867
A5AC
A039
9C19
2627
ABBD
221D
A801
A87C
24F0
2578
A806
1CEB
1EDE
A42D
2BDA
A0A0
2E0A
2AAD
2802
2EBD
2AD3
2D47
A5ED
2AFD
2C01
A961
AB47
2247
A4F3
2BD3
27FC
A90F
A937
AABE
A024
2A50
29FD
A971
2882
98C2
A98E
2ABA
AB20
AA0C
ADA7
B08D
99AA
2C84
AE2E
A4B4
2006
2C53
245F
AAF7
223B
284F
A98A
A512
A23E
A8E0
24D4
A955
A597
1F04
A134
9EAC
A767
29D2
2905
245B
AB83
2436
2516
2E25
295C
2C96
AC0F
A4F2
2FA9
1C43
313F
313F
1F0E
268D
2922
308B
2C99
1E14
B45C
B46D
B2C1
ACC7
2A80
B0C2
2190
B066
9932
AC3B
ABC3
A266
3123
363A
353C
3388
29A3
337A
30F7
2998
A44F
AC41
A432
A996
B4CF
2F48
AD43
B053
AD73
B4F5
31FD
A9C6
B132
B0E3
B4AB
A957
A204
A894
A037
AC63
2C55
2860
ADB5
AE45
1CB7
2829
A06A
ACE4
A919
29B2
A544
ACF1
216D
A65E
208E
AE67
B154
B0A3
A954
2727
20D8
AA08
22A6
943A
A838
264D
A11F
AE7C
B17A
9B96
AF59
B249
B21F
AD7E
2E24
2A44
1B02
2836
2AD5
31E2
30B4
2FD0
27B1
274C
309C
23D0
A6F7
3469
3585
2E65
2DB3
30BE
2EFB
21CE
AFCA
2CFA
AA88
A440
A9FA
B310
3338
23EB
2B7F
A88E
AF5E
3161
321B
A2B5
2A82
2BC1
A2A5
AF2F
2AEF
3052
9DDD
AB6D
AB1F
AB9C
25FF
312A
AE6D
B05F
B336
A950
A467
A1A6
A46B
2C32
AD58
2911
2F16
2CC4
A303
2FE7
2FA5
A426
A557
A9D3
A2C9
AD54
2852
98E6
283F
A847
A882
A479
2AC6
2B76
A4A9
A429
2383
29AC
28EA
27F7
AB07
2809
2A8B
29CE
A973
ADFB
34E4
3005
B385
B4CC
A99C
25DA
ADFB
B15A
B5E1
AD9C
ACE0
253C
B082
9B5C
8FEA
343D
30FF
A51B
25ED
3406
3467
3154
2D77
328C
2D22
27FB
AD5B
A513
AC8F
AC13
A8CF
274A
1E6B
2426
29D3
AB48
A17D
ABE5
2A72
270A
2587
A0F6
A5CD
A86B
AE24
A5A1
AA5B
261C
AB92
A1D7
2CA2
AD08
A946
AD2F
AC21
AFB3
B6FF
B3A0
2C4B
AA49
201D
B06A
AE2C
2918
AE2F
3212
324C
2BBA
2928
A927
285B
2BB9
AB29
B260
ADE2
24C8
2641
271F
1E0C
9D61
180D
2B8A
171C
1CA7
A672
A873
28C2
2B1D
A8C3
24A4
AACB
1F80
284C
2BCB
2A4C
2180
A972
A762
2DCF
A5E8
A6BE
AD8E
20A3
9F34
9D9A
23D0
A96F
2448
1F3C
275A
9663
A9CF
AE3E
2386
A578
2A2C
2CA9
A6CE
A27B
ABBC
A630
A916
A9E9
9BEC
2149
1D50
AE44
2C65
A9D9
29FA
94AD
AC38
9C35
9404
AAF8
242F
AA99
A86E
2546
29A9
ABBC
2B5C
2C23
2BC0
2320
2750
1D02
AC46
272C
2C56
1FC4
20F6
28E5
3085
289A
280D
AEE2
AB23
B0F1
AD59
2358
B06B
23CA
9EC9
A88C
322C
3078
996D
ACAF
98C2
ADCC
A8AD
A368
249D
A57B
A38E
AE09
ADA2
2EF6
2DCC
B0CB
A351
A468
ACE7
