1647
A25C
A158
2B14
21CE
9D13
9D29
18D5
20A1
A0D0
24C4
21FC
36CE
9CB7
A591
98FD
A5FD
9481
1E95
2045
1BC3
15BA
9E87
A0C4
A4B6
1DC5
2DA6
1FD5
23FF
21AA
9244
93BE
2417
9938
990E
0E9A
A9D4
2707
1C9E
98E8
9CC8
2537
1C7E
07DD
8CC5
A111
812E
9B22
A1F3
9422
A28F
99BF
1D99
A449
A011
29F3
9729
9CBC
1C94
23D3
0FEE
209C
234D
2500
98C3
1E96
9C72
1DB4
99E1
1F9E
17ED
B657
9396
1DAE
1843
A048
223F
967A
2B41
0D03
A6E1
1EF7
1511
A67D
1EA6
1907
1E08
9AB4
1C82
17B1
9EC6
2255
9D4B
80C9
9F43
1631
A82E
A44B
A0C7
9C57
1FC4
2E3D
266D
A179
A166
2167
908E
9567
192A
1824
A858
A63A
270E
3804
1D70
A028
23AE
AC9D
1F57
A4B9
A44F
9B93
9A87
9988
A15B
19BD
9CB9
2A0A
9AD2
A021
22FD
A2E0
1400
A6CA
A246
A1B3
A2ED
A95D
2701
91FB
27D0
2763
24F7
205C
151C
9E38
9F07
A1FE
2704
995D
8746
25FA
A44A
22EE
2489
A08D
A6B8
A2D0
A018
A9E1
1D0C
A1B8
25AF
21BB
281E
829F
25A6
A0BE
1CD7
1E39
2056
2233
296A
217C
1E3A
1E1D
195A
A839
A03A
B58A
A1F9
A362
9EFF
8B0C
A900
A45D
2437
249F
2195
A9EC
2827
9970
1C43
A14E
A40B
2506
2004
99FD
282A
8F6C
1DD0
A61C
B060
20B5
107B
2F65
A1B7
193B
A3DC
269C
211B
AB75
ADD9
9A65
350E
A476
2C4F
AE07
32A8
A5CB
20F5
2297
A39F
9592
9A09
A870
A072
97C0
288B
9933
9030
A54B
2797
A330
29D9
2257
9DF1
9F54
26F4
A804
957C
8BDD
2B3C
25A6
AB12
9858
2382
2154
22A5
1F31
266F
2172
24D7
998B
278D
2343
9C1E
2EAA
24EB
2071
AC47
268F
A780
AE67
9F9C
27CB
9F13
A627
A463
9025
1E41
986E
A024
2EA1
A40F
1A36
A09F
9D67
A824
967D
25D3
A022
220A
9AD6
1D87
AA0E
1DCE
9D3D
2481
2379
2519
A890
11BA
9D75
1619
9EA7
A4C2
9F95
2A47
28F2
22FC
A421
1FEA
2684
B0DF
9DF3
20BE
2754
A023
27A1
1EE8
2788
328C
20B3
A0EE
38C7
1BBB
2DD2
29B6
A8B8
A226
1C3D
29EF
18AB
202E
98E9
9D3D
210C
1BD0
9F07
27FA
9D32
2332
ADFC
9EBD
1A43
2112
1E10
209A
A402
A8DE
A1DB
202F
B02D
A547
9452
212E
9823
207E
21B4
92F4
A662
A892
1FA8
2168
A24B
A6B1
1808
A9A2
AA70
2468
AEBF
A879
21E6
26B9
2A24
2355
21AF
21B5
9EDA
A1C2
A706
256E
9644
2569
1E2C
11E2
A25B
1BB1
2A98
9789
2224
190E
A763
A489
A0D1
AB55
2131
9FB1
A52E
9971
2438
9E6E
2164
A7F2
A356
214E
A1A8
99A0
28E7
2914
9FD5
0C43
AAC2
AD7C
A121
269F
A943
994C
252F
3252
A48D
1EBE
26B9
2285
A022
384C
1A5B
2C74
A2D9
AB2E
2386
9DC8
A4D3
A1EB
9827
1D4C
A2B6
2234
1859
2B87
2D59
1FD1
1E0B
A128
1F91
24BD
9D79
2B74
A6FC
1E63
2647
1AFC
9DFE
A172
A908
0FA3
9C68
2095
A24A
9B3E
A8D7
1C0E
A10A
A955
A566
2C82
AC92
20F9
1D56
2874
9F67
ABB1
229B
1F56
233C
A77D
AD23
A0BC
1FE8
A2FE
2023
19BC
2975
8F3A
2216
2435
96E1
1A13
1BB9
AC4F
2789
30B2
2BF8
A45F
A8F9
210C
25CA
A451
A37B
A804
A0F8
260B
A4F9
A675
1C56
1B0A
2192
A634
1D0F
A7C7
A89D
9E3D
9551
9DAF
2AA8
3434
8A85
239C
1BDF
A0C0
9F3E
A042
27EA
2E87
2138
1FEE
3626
23F5
AD2D
1C49
9911
202C
23B4
8789
9E84
9983
A019
A4FF
9D8C
9B52
2F7F
24C6
28C0
A09E
2C21
1F4A
9B4B
9AD4
1FF3
1C54
291B
2A91
281C
1A2B
2C7F
9939
9F19
9635
1A27
195A
9EC8
9251
A757
2091
1CA2
27D9
A80E
22F1
241D
2264
2882
9C04
22DA
1073
25B2
A28D
A828
A4C6
2401
A023
1C74
A14C
A252
1A23
9BCB
2A57
9F08
85C4
95FF
95E3
9125
1AA2
9C10
1683
AAFA
8FB3
10E2
2862
22C4
1D5C
2302
1321
1F92
A150
A43F
1F2D
909D
1D20
1B78
1DEF
23DB
2795
07AB
2033
2DDF
B08B
ACC2
9DDD
2866
0D68
9A72
A84F
951C
90EC
AAD8
2179
A034
35BD
959F
A54D
A216
A5F4
1C66
A011
A35E
21A0
21A6
1827
A5CB
A5CC
1BAB
B4A8
232F
2591
9E02
9619
9847
28F1
9921
22F1
2440
AE10
26E4
8A9E
9171
A60B
2198
9DA6
1C47
A11D
9AC9
9AB9
9ED3
A3B1
1D13
A60B
945B
1C76
A4CD
1FE2
A8E4
A460
258E
A082
1482
9225
21AA
27BB
2342
9615
1A06
A0F1
1C38
9B0C
A6C3
22B0
30B9
9CF6
9C6F
93F9
A428
8F64
97F3
2CA4
109D
A54B
1D57
165B
2867
9D71
9A87
25C0
9497
20F2
A1C1
9F3B
97E6
241C
A824
A4C9
A1BF
2C08
2B7F
223F
1457
29DE
B17D
2546
9D0A
ACE6
9246
9818
AB9A
9998
A0B6
ADA5
2B9F
244F
34D2
A40E
9903
25BE
AB72
24DD
A57D
A8C3
1E84
18F2
1E59
9DC6
2100
9E05
909D
2850
25CE
A230
2B63
195D
A823
989C
2134
218A
A07C
A26A
A092
2242
A982
28A6
2534
96DD
96FE
2618
998C
A6C7
2438
275D
A36D
A679
AB55
9B3F
A328
9821
2560
A353
3309
9A81
24C8
98FB
A4DA
2447
1D2D
A243
1D4F
94A8
2453
A7B4
A5A5
9FE7
1D84
99BF
21B4
22FC
AC1A
1E10
2FEB
93B3
188E
18A7
9E67
A8D1
29F5
22E1
A850
9D33
AF36
23F9
A6CE
22E8
1AAE
A0E5
288A
A363
29BD
2619
97E4
9D55
2481
ACFA
A885
99F4
A298
A6CE
183F
A6A5
9C2B
A689
AE41
28CD
A2F4
3B9C
1FC7
B180
1D1D
A806
A056
1F6E
A2CB
2516
9878
1949
3008
9756
90C5
2D1D
22D5
AA0E
A5A5
AA33
1CCD
AC9B
A136
9E64
A0FA
2FF4
AE31
9D51
A8B2
2057
207D
2086
2230
1B87
9E5E
23BB
949F
9D50
A866
2D24
26EF
2D10
2745
A43D
A96D
9D2B
A533
22B2
A151
9D7A
22AE
259D
2257
A1CB
A04E
24FB
17DB
9E93
0FD5
1C19
2DE9
1DAC
087D
1B04
1816
29A5
241D
2D25
1A8D
2F8D
A662
9A0A
2989
2B59
A09C
22EF
0F89
1AD6
158C
24B5
A1BE
2134
244E
2A0B
9FA6
A954
AE6C
A18A
19C8
AB0D
B2EF
ADA0
2312
AC7B
1A38
1294
AFD8
8D8A
A98C
AC27
21C3
A355
393D
204C
2C55
2645
241F
A408
2159
2664
A0B4
8F25
17A4
A8B1
230E
1132
2823
B150
A7EF
25E1
27EC
1DBF
255A
22D9
AC18
238C
A8CF
2AEB
9EEA
9E3C
2B35
A8B7
2552
A36D
9E23
9FFD
9EBF
2B40
2852
27FE
A9FD
22CB
AE52
2B8F
22E0
9EE5
A649
2153
ACD1
91D7
A46E
25B5
A740
A74F
95A1
1C23
2452
2069
2414
A743
2095
2DEA
A42A
A004
1CB2
9A81
2C3B
A979
A4F3
AA83
1DF2
2C40
1869
2A2B
AD7D
2216
8981
9C3A
2AEB
2819
296F
2412
9C00
23CE
A912
2406
AD07
A819
2020
1B53
A225

